{
  "version": "1.0",
  "truncation": null,
  "padding": null,
  "added_tokens": [
    {
      "id": 0,
      "content": "[PAD]",
      "single_word": false,
      "lstrip": false,
      "rstrip": false,
      "normalized": false,
      "special": true
    },
    {
      "id": 1,
      "content": "[UNK]",
      "single_word": false,
      "lstrip": false,
      "rstrip": false,
      "normalized": false,
      "special": true
    },
    {
      "id": 2,
      "content": "[CLS]",
      "single_word": false,
      "lstrip": false,
      "rstrip": false,
      "normalized": false,
      "special": true
    },
    {
      "id": 3,
      "content": "[SEP]",
      "single_word": false,
      "lstrip": false,
      "rstrip": false,
      "normalized": false,
      "special": true
    },
    {
      "id": 4,
      "content": "[MASK]",
      "single_word": false,
      "lstrip": false,
      "rstrip": false,
      "normalized": false,
      "special": true
    }
  ],
  "normalizer": {
    "type": "BertNormalizer",
    "clean_text": true,
    "handle_chinese_chars": true,
    "strip_accents": null,
    "lowercase": true
  },
  "pre_tokenizer": {
    "type": "BertPreTokenizer"
  },
  "post_processor": null,
  "decoder": {
    "type": "WordPiece",
    "prefix": "##",
    "cleanup": true
  },
  "model": {
    "type": "WordPiece",
    "unk_token": "[UNK]",
    "continuing_subword_prefix": "##",
    "max_input_chars_per_word": 100,
    "vocab": {
      "[PAD]": 0,
      "[UNK]": 1,
      "[CLS]": 2,
      "[SEP]": 3,
      "[MASK]": 4,
      "!": 5,
      "\"": 6,
      "#": 7,
      "$": 8,
      "%": 9,
      "&": 10,
      "'": 11,
      "(": 12,
      ")": 13,
      "*": 14,
      "+": 15,
      ",": 16,
      "-": 17,
      ".": 18,
      "/": 19,
      "0": 20,
      "1": 21,
      "2": 22,
      "3": 23,
      "4": 24,
      "5": 25,
      "6": 26,
      "7": 27,
      "8": 28,
      "9": 29,
      ":": 30,
      ";": 31,
      "<": 32,
      "=": 33,
      ">": 34,
      "?": 35,
      "@": 36,
      "[": 37,
      "\\": 38,
      "]": 39,
      "^": 40,
      "_": 41,
      "`": 42,
      "a": 43,
      "b": 44,
      "c": 45,
      "d": 46,
      "e": 47,
      "f": 48,
      "g": 49,
      "h": 50,
      "i": 51,
      "j": 52,
      "k": 53,
      "l": 54,
      "m": 55,
      "n": 56,
      "o": 57,
      "p": 58,
      "q": 59,
      "r": 60,
      "s": 61,
      "t": 62,
      "u": 63,
      "v": 64,
      "w": 65,
      "x": 66,
      "y": 67,
      "z": 68,
      "{": 69,
      "|": 70,
      "}": 71,
      "~": 72,
      "¡": 73,
      "¢": 74,
      "£": 75,
      "¥": 76,
      "§": 77,
      "¨": 78,
      "©": 79,
      "ª": 80,
      "«": 81,
      "¬": 82,
      "°": 83,
      "²": 84,
      "³": 85,
      "´": 86,
      "µ": 87,
      "¶": 88,
      "·": 89,
      "¸": 90,
      "¹": 91,
      "º": 92,
      "»": 93,
      "¼": 94,
      "½": 95,
      "¾": 96,
      "¿": 97,
      "×": 98,
      "ß": 99,
      "æ": 100,
      "ð": 101,
      "÷": 102,
      "ø": 103,
      "þ": 104,
      "đ": 105,
      "ħ": 106,
      "ł": 107,
      "œ": 108,
      "ſ": 109,
      "ǀ": 110,
      "ǁ": 111,
      "ǝ": 112,
      "ȝ": 113,
      "ȣ": 114,
      "ȴ": 115,
      "ȷ": 116,
      "ɉ": 117,
      "ɐ": 118,
      "ɑ": 119,
      "ɒ": 120,
      "ɔ": 121,
      "ə": 122,
      "ɩ": 123,
      "ɭ": 124,
      "ɯ": 125,
      "ɲ": 126,
      "ɳ": 127,
      "ɹ": 128,
      "ɾ": 129,
      "ʃ": 130,
      "ʇ": 131,
      "ʌ": 132,
      "ʒ": 133,
      "ʰ": 134,
      "ʳ": 135,
      "ʷ": 136,
      "ʾ": 137,
      "ˆ": 138,
      "ˊ": 139,
      "ˎ": 140,
      "ˏ": 141,
      "˘": 142,
      "˙": 143,
      "˚": 144,
      "˜": 145,
      "ˡ": 146,
      "α": 147,
      "β": 148,
      "γ": 149,
      "δ": 150,
      "ε": 151,
      "ζ": 152,
      "η": 153,
      "θ": 154,
      "ι": 155,
      "κ": 156,
      "λ": 157,
      "μ": 158,
      "ν": 159,
      "ξ": 160,
      "ο": 161,
      "π": 162,
      "ρ": 163,
      "ς": 164,
      "σ": 165,
      "τ": 166,
      "υ": 167,
      "φ": 168,
      "χ": 169,
      "ψ": 170,
      "ω": 171,
      "ϛ": 172,
      "ϝ": 173,
      "ϲ": 174,
      "ϵ": 175,
      "а": 176,
      "б": 177,
      "г": 178,
      "д": 179,
      "о": 180,
      "р": 181,
      "я": 182,
      "־": 183,
      "א": 184,
      "ב": 185,
      "ג": 186,
      "ד": 187,
      "ה": 188,
      "ו": 189,
      "ז": 190,
      "ח": 191,
      "ט": 192,
      "י": 193,
      "כ": 194,
      "ל": 195,
      "ם": 196,
      "מ": 197,
      "ן": 198,
      "נ": 199,
      "ס": 200,
      "ע": 201,
      "ף": 202,
      "פ": 203,
      "ץ": 204,
      "צ": 205,
      "ק": 206,
      "ר": 207,
      "ש": 208,
      "ת": 209,
      "ح": 210,
      "خ": 211,
      "ذ": 212,
      "ص": 213,
      "ض": 214,
      "ط": 215,
      "ع": 216,
      "غ": 217,
      "ق": 218,
      "ः": 219,
      "अ": 220,
      "आ": 221,
      "इ": 222,
      "ई": 223,
      "उ": 224,
      "ऊ": 225,
      "ऋ": 226,
      "ए": 227,
      "ओ": 228,
      "क": 229,
      "ख": 230,
      "ग": 231,
      "घ": 232,
      "ङ": 233,
      "च": 234,
      "छ": 235,
      "ज": 236,
      "ञ": 237,
      "ट": 238,
      "ठ": 239,
      "ड": 240,
      "ढ": 241,
      "ण": 242,
      "त": 243,
      "थ": 244,
      "द": 245,
      "ध": 246,
      "न": 247,
      "प": 248,
      "फ": 249,
      "ब": 250,
      "भ": 251,
      "म": 252,
      "य": 253,
      "र": 254,
      "ल": 255,
      "व": 256,
      "श": 257,
      "ष": 258,
      "स": 259,
      "ह": 260,
      "ऽ": 261,
      "ा": 262,
      "ि": 263,
      "ी": 264,
      "ो": 265,
      "ौ": 266,
      "ॐ": 267,
      "।": 268,
      "॥": 269,
      "१": 270,
      "२": 271,
      "३": 272,
      "४": 273,
      "५": 274,
      "६": 275,
      "७": 276,
      "८": 277,
      "॰": 278,
      "ও": 279,
      "৺": 280,
      "ᚠ": 281,
      "ᚢ": 282,
      "ᚤ": 283,
      "ᚦ": 284,
      "ᚨ": 285,
      "ᚩ": 286,
      "ᚭ": 287,
      "ᚮ": 288,
      "ᚱ": 289,
      "ᚳ": 290,
      "ᚴ": 291,
      "ᚷ": 292,
      "ᚺ": 293,
      "ᚻ": 294,
      "ᚼ": 295,
      "ᚾ": 296,
      "ᚿ": 297,
      "ᛁ": 298,
      "ᛂ": 299,
      "ᛅ": 300,
      "ᛆ": 301,
      "ᛉ": 302,
      "ᛋ": 303,
      "ᛌ": 304,
      "ᛍ": 305,
      "ᛏ": 306,
      "ᛐ": 307,
      "ᛑ": 308,
      "ᛒ": 309,
      "ᛖ": 310,
      "ᛗ": 311,
      "ᛘ": 312,
      "ᛚ": 313,
      "ᛞ": 314,
      "ᛟ": 315,
      "ᛦ": 316,
      "᛫": 317,
      "᛬": 318,
      "ᴔ": 319,
      "ᴶ": 320,
      "ᴸ": 321,
      "ᵃ": 322,
      "ᵈ": 323,
      "ᵉ": 324,
      "ᵍ": 325,
      "ᵒ": 326,
      "ᵗ": 327,
      "ᵢ": 328,
      "ᵤ": 329,
      "ᵭ": 330,
      "ᵹ": 331,
      "᾽": 332,
      "῾": 333,
      "–": 334,
      "—": 335,
      "―": 336,
      "‖": 337,
      "‘": 338,
      "’": 339,
      "‚": 340,
      "“": 341,
      "”": 342,
      "„": 343,
      "‟": 344,
      "†": 345,
      "‡": 346,
      "•": 347,
      "…": 348,
      "‰": 349,
      "′": 350,
      "″": 351,
      "‴": 352,
      "⁂": 353,
      "⁄": 354,
      "⁗": 355,
      "⁝": 356,
      "⁰": 357,
      "⁴": 358,
      "⁵": 359,
      "⁶": 360,
      "⁷": 361,
      "⁸": 362,
      "⁹": 363,
      "ⁿ": 364,
      "₀": 365,
      "₁": 366,
      "₂": 367,
      "₃": 368,
      "₄": 369,
      "₅": 370,
      "₆": 371,
      "₇": 372,
      "₈": 373,
      "₉": 374,
      "™": 375,
      "⅒": 376,
      "⅓": 377,
      "⅔": 378,
      "⅕": 379,
      "⅗": 380,
      "⅘": 381,
      "⅙": 382,
      "⅚": 383,
      "⅛": 384,
      "⅜": 385,
      "⅝": 386,
      "⅞": 387,
      "ↄ": 388,
      "↋": 389,
      "←": 390,
      "↑": 391,
      "→": 392,
      "↓": 393,
      "∆": 394,
      "−": 395,
      "∞": 396,
      "∧": 397,
      "∨": 398,
      "∴": 399,
      "∵": 400,
      "∶": 401,
      "∽": 402,
      "⋀": 403,
      "⋂": 404,
      "⌊": 405,
      "⎜": 406,
      "─": 407,
      "│": 408,
      "┌": 409,
      "┐": 410,
      "└": 411,
      "┘": 412,
      "├": 413,
      "┤": 414,
      "┬": 415,
      "┴": 416,
      "┻": 417,
      "┼": 418,
      "═": 419,
      "║": 420,
      "╔": 421,
      "╗": 422,
      "╚": 423,
      "╝": 424,
      "╤": 425,
      "╦": 426,
      "╧": 427,
      "╨": 428,
      "╩": 429,
      "╫": 430,
      "■": 431,
      "◊": 432,
      "○": 433,
      "●": 434,
      "☉": 435,
      "☊": 436,
      "☋": 437,
      "☌": 438,
      "☍": 439,
      "☐": 440,
      "☜": 441,
      "☞": 442,
      "☽": 443,
      "☿": 444,
      "♀": 445,
      "♂": 446,
      "♃": 447,
      "♄": 448,
      "♈": 449,
      "♉": 450,
      "♊": 451,
      "♋": 452,
      "♌": 453,
      "♍": 454,
      "♎": 455,
      "♏": 456,
      "♐": 457,
      "♑": 458,
      "♒": 459,
      "♓": 460,
      "♠": 461,
      "♣": 462,
      "♥": 463,
      "♦": 464,
      "⚐": 465,
      "⚹": 466,
      "✠": 467,
      "❌": 468,
      "❦": 469,
      "⦵": 470,
      "⨀": 471,
      "⫶": 472,
      "⸲": 473,
      "⸸": 474,
      "⸺": 475,
      "〃": 476,
      "卍": 477,
      "嶪": 478,
      "嶴": 479,
      "嶵": 480,
      "廨": 481,
      "朳": 482,
      "滎": 483,
      "褭": 484,
      "訶": 485,
      "誦": 486,
      "軋": 487,
      "隳": 488,
      "駑": 489,
      "駘": 490,
      "ꝺ": 491,
      "ꝼ": 492,
      "ꞁ": 493,
      "ꞃ": 494,
      "ꞅ": 495,
      "ꞇ": 496,
      "ｰ": 497,
      "ﾆ": 498,
      "##e": 499,
      "##m": 500,
      "##i": 501,
      "##n": 502,
      "##s": 503,
      "##y": 504,
      "##x": 505,
      "##t": 506,
      "##p": 507,
      "##r": 508,
      "##a": 509,
      "##b": 510,
      "##o": 511,
      "##u": 512,
      "##l": 513,
      "##c": 514,
      "##h": 515,
      "##1": 516,
      "##2": 517,
      "##7": 518,
      "##d": 519,
      "##v": 520,
      "##w": 521,
      "##g": 522,
      "##f": 523,
      "##z": 524,
      "##k": 525,
      "##0": 526,
      "##4": 527,
      "##5": 528,
      "##j": 529,
      "##6": 530,
      "##3": 531,
      "##q": 532,
      "##æ": 533,
      "##उ": 534,
      "##ब": 535,
      "##ि": 536,
      "##द": 537,
      "##य": 538,
      "##ा": 539,
      "##र": 540,
      "##त": 541,
      "##ः": 542,
      "##9": 543,
      "##ο": 544,
      "##κ": 545,
      "##8": 546,
      "##°": 547,
      "##υ": 548,
      "##π": 549,
      "##ρ": 550,
      "##α": 551,
      "##ξ": 552,
      "##ι": 553,
      "##ς": 554,
      "##व": 555,
      "##च": 556,
      "##म": 557,
      "##ध": 558,
      "##ल": 559,
      "##─": 560,
      "##┼": 561,
      "##┬": 562,
      "##ε": 563,
      "##क": 564,
      "##श": 565,
      "##₂": 566,
      "##₃": 567,
      "##φ": 568,
      "##η": 569,
      "##ɳ": 570,
      "##न": 571,
      "##ग": 572,
      "##σ": 573,
      "##ी": 574,
      "##λ": 575,
      "##फ": 576,
      "##ट": 577,
      "##ष": 578,
      "##ण": 579,
      "##प": 580,
      "##ो": 581,
      "##ठ": 582,
      "##ञ": 583,
      "##ज": 584,
      "##º": 585,
      "##˚": 586,
      "##ω": 587,
      "##μ": 588,
      "##γ": 589,
      "##ν": 590,
      "##δ": 591,
      "##´": 592,
      "##τ": 593,
      "##छ": 594,
      "##ɑ": 595,
      "##ꞇ": 596,
      "##ɩ": 597,
      "##║": 598,
      "##µ": 599,
      "##थ": 600,
      "##ª": 601,
      "##═": 602,
      "##╤": 603,
      "##ह": 604,
      "##┴": 605,
      "##χ": 606,
      "##│": 607,
      "##ख": 608,
      "##स": 609,
      "##भ": 610,
      "##ङ": 611,
      "##ע": 612,
      "##ו": 613,
      "##נ": 614,
      "##י": 615,
      "##ם": 616,
      "##ᛚ": 617,
      "##ᛆ": 618,
      "##ק": 619,
      "##ל": 620,
      "##ꞃ": 621,
      "##β": 622,
      "##˘": 623,
      "##¾": 624,
      "##θ": 625,
      "##५": 626,
      "##ψ": 627,
      "##½": 628,
      "##१": 629,
      "##⁄": 630,
      "##ᵹ": 631,
      "##ऽ": 632,
      "##ौ": 633,
      "##²": 634,
      "##ᚢ": 635,
      "##ᚮ": 636,
      "##ᚠ": 637,
      "##ᛁ": 638,
      "##ᚱ": 639,
      "##⅔": 640,
      "##∞": 641,
      "##₀": 642,
      "##⅘": 643,
      "##£": 644,
      "##₁": 645,
      "##ड": 646,
      "##ש": 647,
      "##ה": 648,
      "##ט": 649,
      "##ɔ": 650,
      "##×": 651,
      "##ł": 652,
      "##þ": 653,
      "##א": 654,
      "##ζ": 655,
      "##ב": 656,
      "##ר": 657,
      "##इ": 658,
      "##⁷": 659,
      "##ˏ": 660,
      "##ᚴ": 661,
      "##ᛐ": 662,
      "##¸": 663,
      "##ז": 664,
      "##đ": 665,
      "##œ": 666,
      "##⁹": 667,
      "##₅": 668,
      "##⅝": 669,
      "##¼": 670,
      "##כ": 671,
      "##פ": 672,
      "##ᵍ": 673,
      "##ϲ": 674,
      "##¬": 675,
      "##⅓": 676,
      "##ϝ": 677,
      "##₄": 678,
      "##╦": 679,
      "##╗": 680,
      "##ᛅ": 681,
      "##ᚭ": 682,
      "##⁵": 683,
      "##ʳ": 684,
      "##ᵉ": 685,
      "##ת": 686,
      "##ס": 687,
      "##מ": 688,
      "##ȷ": 689,
      "##ढ": 690,
      "##ð": 691,
      "##┘": 692,
      "##ד": 693,
      "##ˆ": 694,
      "##⅞": 695,
      "##¹": 696,
      "##⁶": 697,
      "##₉": 698,
      "##ץ": 699,
      "##╧": 700,
      "##⦵": 701,
      "##╨": 702,
      "##ˎ": 703,
      "##ȝ": 704,
      "##ɭ": 705,
      "##³": 706,
      "##ᵤ": 707,
      "##ꞁ": 708,
      "##☍": 709,
      "##ᛋ": 710,
      "##ᛏ": 711,
      "##⅕": 712,
      "##ᛌ": 713,
      "##⅜": 714,
      "##ʌ": 715,
      "##צ": 716,
      "##ᚿ": 717,
      "##♐": 718,
      "##ᵒ": 719,
      "##−": 720,
      "##ᵢ": 721,
      "##ᵗ": 722,
      "##ᚦ": 723,
      "##ↄ": 724,
      "##÷": 725,
      "##ᚨ": 726,
      "##∆": 727,
      "##⁰": 728,
      "##ऋ": 729,
      "##ϛ": 730,
      "##ɾ": 731,
      "##घ": 732,
      "##ｰ": 733,
      "##ß": 734,
      "##♎": 735,
      "##♃": 736,
      "##┤": 737,
      "##⅛": 738,
      "##ג": 739,
      "##┐": 740,
      "##ओ": 741,
      "##ʷ": 742,
      "##ᚾ": 743,
      "##☽": 744,
      "##ˊ": 745,
      "##ח": 746,
      "##¢": 747,
      "##⚐": 748,
      "##अ": 749,
      "##♒": 750,
      "##♦": 751,
      "##₇": 752,
      "##™": 753,
      "##आ": 754,
      "##ᛟ": 755,
      "##ᚻ": 756,
      "##ᚩ": 757,
      "##ᛖ": 758,
      "##ᛞ": 759,
      "##ᛘ": 760,
      "##ᚷ": 761,
      "##ᛗ": 762,
      "##ᛦ": 763,
      "##ə": 764,
      "##╫": 765,
      "##२": 766,
      "##ﾆ": 767,
      "##⁸": 768,
      "##⅒": 769,
      "##ø": 770,
      "##→": 771,
      "##ף": 772,
      "##ן": 773,
      "##ᴶ": 774,
      "##ꞅ": 775,
      "##ए": 776,
      "##¨": 777,
      "##⎜": 778,
      "##╩": 779,
      "##╝": 780,
      "##₈": 781,
      "##☿": 782,
      "##⅙": 783,
      "##ˡ": 784,
      "##р": 785,
      "##о": 786,
      "##д": 787,
      "##я": 788,
      "##г": 789,
      "##а": 790,
      "##☉": 791,
      "##ᚼ": 792,
      "##ᛂ": 793,
      "##₆": 794,
      "##⚹": 795,
      "##⅗": 796,
      "##ⁿ": 797,
      "##⁴": 798,
      "##♓": 799,
      "##♂": 800,
      "##ᛍ": 801,
      "##ɲ": 802,
      "##☐": 803,
      "##ʰ": 804,
      "##ħ": 805,
      "##♑": 806,
      "##♏": 807,
      "##ᚤ": 808,
      "##ᴸ": 809,
      "##᾽": 810,
      "##ɉ": 811,
      "##ᛉ": 812,
      "##♄": 813,
      "##ᵈ": 814,
      "##♀": 815,
      "##६": 816,
      "##⅚": 817,
      "##˙": 818,
      "##⫶": 819,
      "##८": 820,
      "##☌": 821,
      "##©": 822,
      "##ᛑ": 823,
      "th": 824,
      "the": 825,
      "##er": 826,
      "##nd": 827,
      "##in": 828,
      "##ed": 829,
      "##at": 830,
      "##en": 831,
      "##ou": 832,
      "of": 833,
      "##on": 834,
      "##es": 835,
      "##or": 836,
      "and": 837,
      "to": 838,
      "##is": 839,
      "##ar": 840,
      "##ing": 841,
      "##an": 842,
      "##it": 843,
      "in": 844,
      "##as": 845,
      "##ll": 846,
      "##re": 847,
      "##om": 848,
      "wh": 849,
      "##ic": 850,
      "be": 851,
      "##le": 852,
      "he": 853,
      "ha": 854,
      "##ot": 855,
      "##ion": 856,
      "##ut": 857,
      "##ent": 858,
      "##al": 859,
      "##ow": 860,
      "##ly": 861,
      "it": 862,
      "##ve": 863,
      "##se": 864,
      "that": 865,
      "##st": 866,
      "##ld": 867,
      "on": 868,
      "##ce": 869,
      "was": 870,
      "##id": 871,
      "##et": 872,
      "##gh": 873,
      "for": 874,
      "sh": 875,
      "##ith": 876,
      "##im": 877,
      "##ur": 878,
      "##ir": 879,
      "re": 880,
      "as": 881,
      "you": 882,
      "##ch": 883,
      "##ay": 884,
      "st": 885,
      "with": 886,
      "his": 887,
      "##ct": 888,
      "is": 889,
      "##ver": 890,
      "##ad": 891,
      "an": 892,
      "##ter": 893,
      "pr": 894,
      "##am": 895,
      "her": 896,
      "at": 897,
      "not": 898,
      "fr": 899,
      "##th": 900,
      "##ess": 901,
      "##ght": 902,
      "had": 903,
      "se": 904,
      "##ain": 905,
      "##oo": 906,
      "su": 907,
      "##ill": 908,
      "we": 909,
      "##ould": 910,
      "but": 911,
      "##il": 912,
      "##ere": 913,
      "ch": 914,
      "de": 915,
      "by": 916,
      "##ich": 917,
      "##all": 918,
      "or": 919,
      "con": 920,
      "##est": 921,
      "so": 922,
      "she": 923,
      "##ation": 924,
      "me": 925,
      "which": 926,
      "##ri": 927,
      "him": 928,
      "##ul": 929,
      "##pe": 930,
      "this": 931,
      "sa": 932,
      "li": 933,
      "##ge": 934,
      "from": 935,
      "##ak": 936,
      "ne": 937,
      "have": 938,
      "com": 939,
      "all": 940,
      "##os": 941,
      "##ers": 942,
      "they": 943,
      "ex": 944,
      "##ore": 945,
      "##us": 946,
      "##ra": 947,
      "##ck": 948,
      "##ard": 949,
      "##ight": 950,
      "##ol": 951,
      "##ie": 952,
      "##ant": 953,
      "do": 954,
      "##ab": 955,
      "up": 956,
      "##and": 957,
      "my": 958,
      "##op": 959,
      "were": 960,
      "##ist": 961,
      "##her": 962,
      "##ous": 963,
      "al": 964,
      "##em": 965,
      "who": 966,
      "no": 967,
      "are": 968,
      "##ust": 969,
      "man": 970,
      "en": 971,
      "##ate": 972,
      "##pp": 973,
      "##um": 974,
      "wor": 975,
      "one": 976,
      "##our": 977,
      "there": 978,
      "##art": 979,
      "##od": 980,
      "##ig": 981,
      "##ast": 982,
      "un": 983,
      "##ome": 984,
      "##un": 985,
      "##ap": 986,
      "fe": 987,
      "their": 988,
      "ab": 989,
      "le": 990,
      "##if": 991,
      "ar": 992,
      "##ame": 993,
      "##ound": 994,
      "##ish": 995,
      "them": 996,
      "##ong": 997,
      "##ind": 998,
      "br": 999,
      "##out": 1000,
      "said": 1001,
      "##la": 1002,
      "##ood": 1003,
      "##ive": 1004,
      "when": 1005,
      "##iv": 1006,
      "##sel": 1007,
      "##ect": 1008,
      "##ort": 1009,
      "been": 1010,
      "would": 1011,
      "tr": 1012,
      "will": 1013,
      "kn": 1014,
      "int": 1015,
      "if": 1016,
      "##ke": 1017,
      "##ity": 1018,
      "##el": 1019,
      "##ost": 1020,
      "##ough": 1021,
      "out": 1022,
      "##ies": 1023,
      "##reat": 1024,
      "pro": 1025,
      "sp": 1026,
      "##qu": 1027,
      "fa": 1028,
      "af": 1029,
      "what": 1030,
      "##ure": 1031,
      "##ence": 1032,
      "qu": 1033,
      "am": 1034,
      "##one": 1035,
      "##itt": 1036,
      "##pt": 1037,
      "##cc": 1038,
      "ag": 1039,
      "go": 1040,
      "##ose": 1041,
      "##own": 1042,
      "##ook": 1043,
      "##ment": 1044,
      "##ag": 1045,
      "##ance": 1046,
      "any": 1047,
      "##ber": 1048,
      "ad": 1049,
      "can": 1050,
      "##ther": 1051,
      "##nder": 1052,
      "##ry": 1053,
      "##ci": 1054,
      "more": 1055,
      "##ery": 1056,
      "##oun": 1057,
      "some": 1058,
      "co": 1059,
      "tim": 1060,
      "##──": 1061,
      "##ach": 1062,
      "cl": 1063,
      "##ven": 1064,
      "##self": 1065,
      "##ake": 1066,
      "im": 1067,
      "tw": 1068,
      "##ine": 1069,
      "ro": 1070,
      "dis": 1071,
      "##able": 1072,
      "then": 1073,
      "##au": 1074,
      "##ass": 1075,
      "into": 1076,
      "per": 1077,
      "##ice": 1078,
      "##ud": 1079,
      "your": 1080,
      "has": 1081,
      "us": 1082,
      "than": 1083,
      "gr": 1084,
      "##ally": 1085,
      "##tain": 1086,
      "ever": 1087,
      "could": 1088,
      "mar": 1089,
      "now": 1090,
      "##ell": 1091,
      "##pl": 1092,
      "lo": 1093,
      "##urn": 1094,
      "##ide": 1095,
      "very": 1096,
      "mr": 1097,
      "##ade": 1098,
      "##ated": 1099,
      "other": 1100,
      "##wn": 1101,
      "##age": 1102,
      "##ions": 1103,
      "time": 1104,
      "day": 1105,
      "our": 1106,
      "how": 1107,
      "##ree": 1108,
      "##ack": 1109,
      "after": 1110,
      "##oss": 1111,
      "##ite": 1112,
      "great": 1113,
      "##ff": 1114,
      "upon": 1115,
      "##ble": 1116,
      "##fore": 1117,
      "its": 1118,
      "##ved": 1119,
      "##ire": 1120,
      "##per": 1121,
      "car": 1122,
      "about": 1123,
      "po": 1124,
      "see": 1125,
      "##ord": 1126,
      "part": 1127,
      "did": 1128,
      "##ans": 1129,
      "##way": 1130,
      "str": 1131,
      "pe": 1132,
      "pl": 1133,
      "may": 1134,
      "cr": 1135,
      "##ought": 1136,
      "over": 1137,
      "like": 1138,
      "##ary": 1139,
      "know": 1140,
      "##other": 1141,
      "bo": 1142,
      "off": 1143,
      "only": 1144,
      "fo": 1145,
      "##ep": 1146,
      "##pr": 1147,
      "ind": 1148,
      "##ars": 1149,
      "##ile": 1150,
      "##ied": 1151,
      "work": 1152,
      "again": 1153,
      "pre": 1154,
      "##ings": 1155,
      "thr": 1156,
      "##ittle": 1157,
      "##hing": 1158,
      "##ount": 1159,
      "little": 1160,
      "should": 1161,
      "hand": 1162,
      "look": 1163,
      "fl": 1164,
      "two": 1165,
      "too": 1166,
      "##ink": 1167,
      "these": 1168,
      "##ious": 1169,
      "##ick": 1170,
      "fir": 1171,
      "##ath": 1172,
      "sc": 1173,
      "##ang": 1174,
      "well": 1175,
      "##ue": 1176,
      "rem": 1177,
      "under": 1178,
      "res": 1179,
      "say": 1180,
      "##ull": 1181,
      "before": 1182,
      "bl": 1183,
      "##ty": 1184,
      "made": 1185,
      "des": 1186,
      "##bl": 1187,
      "##fe": 1188,
      "##ather": 1189,
      "##ces": 1190,
      "such": 1191,
      "where": 1192,
      "##co": 1193,
      "good": 1194,
      "cont": 1195,
      "##ced": 1196,
      "##uch": 1197,
      "##ward": 1198,
      "##ving": 1199,
      "##te": 1200,
      "sm": 1201,
      "comp": 1202,
      "##ful": 1203,
      "must": 1204,
      "comm": 1205,
      "spe": 1206,
      "bet": 1207,
      "##ild": 1208,
      "##ip": 1209,
      "##ness": 1210,
      "##ject": 1211,
      "men": 1212,
      "##ft": 1213,
      "pla": 1214,
      "##orn": 1215,
      "long": 1216,
      "every": 1217,
      "acc": 1218,
      "##iss": 1219,
      "down": 1220,
      "first": 1221,
      "ye": 1222,
      "bec": 1223,
      "even": 1224,
      "##ia": 1225,
      "ho": 1226,
      "dr": 1227,
      "much": 1228,
      "##ves": 1229,
      "##ise": 1230,
      "old": 1231,
      "em": 1232,
      "##act": 1233,
      "way": 1234,
      "let": 1235,
      "##ted": 1236,
      "own": 1237,
      "##ked": 1238,
      "##oth": 1239,
      "cons": 1240,
      "ob": 1241,
      "pres": 1242,
      "##iz": 1243,
      "##ition": 1244,
      "most": 1245,
      "##ian": 1246,
      "never": 1247,
      "here": 1248,
      "ap": 1249,
      "##cl": 1250,
      "##ory": 1251,
      "##ater": 1252,
      "la": 1253,
      "##ign": 1254,
      "##igh": 1255,
      "gl": 1256,
      "##ered": 1257,
      "found": 1258,
      "come": 1259,
      "bel": 1260,
      "##llow": 1261,
      "##ations": 1262,
      "##we": 1263,
      "##ady": 1264,
      "new": 1265,
      "gen": 1266,
      "##ase": 1267,
      "inter": 1268,
      "##ily": 1269,
      "te": 1270,
      "ey": 1271,
      "think": 1272,
      "##ens": 1273,
      "don": 1274,
      "##ph": 1275,
      "those": 1276,
      "through": 1277,
      "dist": 1278,
      "##ro": 1279,
      "char": 1280,
      "app": 1281,
      "ser": 1282,
      "pass": 1283,
      "came": 1284,
      "wr": 1285,
      "form": 1286,
      "##ons": 1287,
      "back": 1288,
      "##ors": 1289,
      "life": 1290,
      "seem": 1291,
      "himself": 1292,
      "##man": 1293,
      "just": 1294,
      "##iff": 1295,
      "many": 1296,
      "might": 1297,
      "##ouse": 1298,
      "mo": 1299,
      "jo": 1300,
      "att": 1301,
      "call": 1302,
      "being": 1303,
      "##led": 1304,
      "##ical": 1305,
      "##ult": 1306,
      "ret": 1307,
      "thought": 1308,
      "##ction": 1309,
      "count": 1310,
      "ke": 1311,
      "far": 1312,
      "##ried": 1313,
      "##────": 1314,
      "##ents": 1315,
      "without": 1316,
      "eng": 1317,
      "ear": 1318,
      "##so": 1319,
      "##atter": 1320,
      "##orm": 1321,
      "##ave": 1322,
      "##ark": 1323,
      "inf": 1324,
      "##ict": 1325,
      "op": 1326,
      "same": 1327,
      "word": 1328,
      "make": 1329,
      "##are": 1330,
      "##ople": 1331,
      "##land": 1332,
      "while": 1333,
      "gener": 1334,
      "##ently": 1335,
      "##red": 1336,
      "house": 1337,
      "head": 1338,
      "ma": 1339,
      "##ened": 1340,
      "##av": 1341,
      "##ause": 1342,
      "beg": 1343,
      "still": 1344,
      "18": 1345,
      "reg": 1346,
      "sl": 1347,
      "##ared": 1348,
      "imp": 1349,
      "shall": 1350,
      "place": 1351,
      "god": 1352,
      "nor": 1353,
      "##ible": 1354,
      "##pect": 1355,
      "last": 1356,
      "supp": 1357,
      "people": 1358,
      "get": 1359,
      "##int": 1360,
      "end": 1361,
      "appe": 1362,
      "ph": 1363,
      "turn": 1364,
      "cap": 1365,
      "war": 1366,
      "rel": 1367,
      "##ng": 1368,
      "arm": 1369,
      "away": 1370,
      "cour": 1371,
      "nat": 1372,
      "ac": 1373,
      "##ew": 1374,
      "went": 1375,
      "inst": 1376,
      "##rib": 1377,
      "##air": 1378,
      "take": 1379,
      "##ial": 1380,
      "##omet": 1381,
      "sub": 1382,
      "wom": 1383,
      "##ished": 1384,
      "##ace": 1385,
      "##lf": 1386,
      "##ne": 1387,
      "##aking": 1388,
      "##ited": 1389,
      "##ix": 1390,
      "right": 1391,
      "though": 1392,
      "sur": 1393,
      "young": 1394,
      "pers": 1395,
      "##og": 1396,
      "##ether": 1397,
      "follow": 1398,
      "##ates": 1399,
      "night": 1400,
      "##iver": 1401,
      "yet": 1402,
      "eyes": 1403,
      "##iend": 1404,
      "##gg": 1405,
      "col": 1406,
      "##ac": 1407,
      "##les": 1408,
      "somet": 1409,
      "par": 1410,
      "set": 1411,
      "diff": 1412,
      "##sw": 1413,
      "friend": 1414,
      "ev": 1415,
      "ord": 1416,
      "rep": 1417,
      "another": 1418,
      "tell": 1419,
      "gra": 1420,
      "near": 1421,
      "poss": 1422,
      "##ual": 1423,
      "##cess": 1424,
      "##ower": 1425,
      "nothing": 1426,
      "##ank": 1427,
      "ed": 1428,
      "ref": 1429,
      "conf": 1430,
      "ter": 1431,
      "heart": 1432,
      "three": 1433,
      "also": 1434,
      "##less": 1435,
      "##ange": 1436,
      "sou": 1437,
      "mrs": 1438,
      "prop": 1439,
      "mon": 1440,
      "gu": 1441,
      "ass": 1442,
      "##ever": 1443,
      "##und": 1444,
      "once": 1445,
      "##ru": 1446,
      "child": 1447,
      "want": 1448,
      "left": 1449,
      "high": 1450,
      "add": 1451,
      "put": 1452,
      "##ib": 1453,
      "room": 1454,
      "act": 1455,
      "giv": 1456,
      "##ress": 1457,
      "##ince": 1458,
      "##uth": 1459,
      "miss": 1460,
      "mind": 1461,
      "ple": 1462,
      "##ps": 1463,
      "##ertain": 1464,
      "##cept": 1465,
      "tra": 1466,
      "##ody": 1467,
      "years": 1468,
      "occ": 1469,
      "face": 1470,
      "father": 1471,
      "el": 1472,
      "##uten": 1473,
      "##atch": 1474,
      "##ular": 1475,
      "##ys": 1476,
      "world": 1477,
      "few": 1478,
      "##ail": 1479,
      "give": 1480,
      "##ple": 1481,
      "ll": 1482,
      "vo": 1483,
      "love": 1484,
      "find": 1485,
      "king": 1486,
      "es": 1487,
      "against": 1488,
      "sir": 1489,
      "pur": 1490,
      "each": 1491,
      "##ting": 1492,
      "##ock": 1493,
      "##ined": 1494,
      "##alk": 1495,
      "##ween": 1496,
      "between": 1497,
      "bre": 1498,
      "answ": 1499,
      "lar": 1500,
      "pu": 1501,
      "return": 1502,
      "light": 1503,
      "##berg": 1504,
      "##ove": 1505,
      "saw": 1506,
      "water": 1507,
      "min": 1508,
      "sw": 1509,
      "art": 1510,
      "##ped": 1511,
      "##augh": 1512,
      "unt": 1513,
      "##ret": 1514,
      "mom": 1515,
      "ste": 1516,
      "##ii": 1517,
      "##ither": 1518,
      "ill": 1519,
      "##ner": 1520,
      "del": 1521,
      "##ways": 1522,
      "adv": 1523,
      "##cy": 1524,
      "happ": 1525,
      "belie": 1526,
      "##thing": 1527,
      "##ote": 1528,
      "##ier": 1529,
      "id": 1530,
      "side": 1531,
      "##ense": 1532,
      "took": 1533,
      "##press": 1534,
      "##ning": 1535,
      "read": 1536,
      "small": 1537,
      "cle": 1538,
      "##ised": 1539,
      "##ool": 1540,
      "##ures": 1541,
      "##ton": 1542,
      "eff": 1543,
      "rest": 1544,
      "##osed": 1545,
      "dou": 1546,
      "##ond": 1547,
      "project": 1548,
      "ve": 1549,
      "certain": 1550,
      "why": 1551,
      "ins": 1552,
      "ele": 1553,
      "##irl": 1554,
      "inc": 1555,
      "##fect": 1556,
      "things": 1557,
      "chr": 1558,
      "general": 1559,
      "bu": 1560,
      "land": 1561,
      "sy": 1562,
      "##ters": 1563,
      "mother": 1564,
      "yes": 1565,
      "full": 1566,
      "guten": 1567,
      "gutenberg": 1568,
      "kind": 1569,
      "always": 1570,
      "hard": 1571,
      "##00": 1572,
      "##aken": 1573,
      "wa": 1574,
      "sat": 1575,
      "##den": 1576,
      "both": 1577,
      "soon": 1578,
      "because": 1579,
      "present": 1580,
      "##most": 1581,
      "home": 1582,
      "hands": 1583,
      "mil": 1584,
      "name": 1585,
      "##its": 1586,
      "##rew": 1587,
      "among": 1588,
      "called": 1589,
      "country": 1590,
      "##iness": 1591,
      "sent": 1592,
      "feel": 1593,
      "hel": 1594,
      "cur": 1595,
      "asked": 1596,
      "moment": 1597,
      "however": 1598,
      "seemed": 1599,
      "##ained": 1600,
      "##ating": 1601,
      "having": 1602,
      "##orr": 1603,
      "##ying": 1604,
      "pa": 1605,
      "##ks": 1606,
      "looked": 1607,
      "girl": 1608,
      "##ute": 1609,
      "##he": 1610,
      "sch": 1611,
      "going": 1612,
      "hum": 1613,
      "##ments": 1614,
      "##lt": 1615,
      "half": 1616,
      "law": 1617,
      "##odu": 1618,
      "##ten": 1619,
      "sil": 1620,
      "cond": 1621,
      "##xt": 1622,
      "num": 1623,
      "##aut": 1624,
      "whom": 1625,
      "seen": 1626,
      "got": 1627,
      "##uring": 1628,
      "told": 1629,
      "days": 1630,
      "bar": 1631,
      "##vel": 1632,
      "met": 1633,
      "thing": 1634,
      "whole": 1635,
      "##ged": 1636,
      "##aps": 1637,
      "##ention": 1638,
      "##ired": 1639,
      "woman": 1640,
      "##att": 1641,
      "##wards": 1642,
      "hour": 1643,
      "sk": 1644,
      "sim": 1645,
      "fact": 1646,
      "fam": 1647,
      "inv": 1648,
      "##iet": 1649,
      "wind": 1650,
      "ext": 1651,
      "inde": 1652,
      "tre": 1653,
      "christ": 1654,
      "har": 1655,
      "##eng": 1656,
      "##als": 1657,
      "vis": 1658,
      "##ief": 1659,
      "##selves": 1660,
      "done": 1661,
      "##oke": 1662,
      "##ush": 1663,
      "consid": 1664,
      "better": 1665,
      "course": 1666,
      "che": 1667,
      "four": 1668,
      "heard": 1669,
      "##ows": 1670,
      "det": 1671,
      "rec": 1672,
      "dra": 1673,
      "##med": 1674,
      "rece": 1675,
      "##ene": 1676,
      "something": 1677,
      "##ason": 1678,
      "##sh": 1679,
      "care": 1680,
      "contin": 1681,
      "less": 1682,
      "matter": 1683,
      "##ash": 1684,
      "use": 1685,
      "door": 1686,
      "##ities": 1687,
      "almost": 1688,
      "##ins": 1689,
      "lord": 1690,
      "##oy": 1691,
      "oh": 1692,
      "quest": 1693,
      "knew": 1694,
      "##ern": 1695,
      "stand": 1696,
      "power": 1697,
      "does": 1698,
      "##nded": 1699,
      "large": 1700,
      "ra": 1701,
      "##ately": 1702,
      "dire": 1703,
      "exc": 1704,
      "until": 1705,
      "##ived": 1706,
      "##ron": 1707,
      "##tered": 1708,
      "enough": 1709,
      "##ream": 1710,
      "suff": 1711,
      "ent": 1712,
      "keep": 1713,
      "words": 1714,
      "person": 1715,
      "publ": 1716,
      "quite": 1717,
      "open": 1718,
      "point": 1719,
      "adm": 1720,
      "red": 1721,
      "##ants": 1722,
      "morn": 1723,
      "##ung": 1724,
      "##ably": 1725,
      "thus": 1726,
      "poor": 1727,
      "##ison": 1728,
      "prin": 1729,
      "sever": 1730,
      "pleas": 1731,
      "##wh": 1732,
      "foot": 1733,
      "##ution": 1734,
      "state": 1735,
      "##ub": 1736,
      "##owed": 1737,
      "fin": 1738,
      "##ield": 1739,
      "fig": 1740,
      "##amp": 1741,
      "##vern": 1742,
      "##ont": 1743,
      "beh": 1744,
      "##ured": 1745,
      "lady": 1746,
      "##aring": 1747,
      "##lish": 1748,
      "best": 1749,
      "interest": 1750,
      "const": 1751,
      "cent": 1752,
      "mean": 1753,
      "prov": 1754,
      "##aster": 1755,
      "sec": 1756,
      "##ines": 1757,
      "##ench": 1758,
      "brought": 1759,
      "white": 1760,
      "morning": 1761,
      "serv": 1762,
      "taken": 1763,
      "##ts": 1764,
      "spir": 1765,
      "##up": 1766,
      "given": 1767,
      "death": 1768,
      "dec": 1769,
      "17": 1770,
      "gave": 1771,
      "##ully": 1772,
      "##oney": 1773,
      "oth": 1774,
      "bla": 1775,
      "##iew": 1776,
      "##ages": 1777,
      "##uck": 1778,
      "##cover": 1779,
      "differ": 1780,
      "turned": 1781,
      "vol": 1782,
      "dep": 1783,
      "##ceed": 1784,
      "##ug": 1785,
      "beaut": 1786,
      "15": 1787,
      "sure": 1788,
      "##ued": 1789,
      "##haps": 1790,
      "pol": 1791,
      "need": 1792,
      "prom": 1793,
      "##ren": 1794,
      "perhaps": 1795,
      "gre": 1796,
      "##ms": 1797,
      "reach": 1798,
      "hon": 1799,
      "hor": 1800,
      "##osition": 1801,
      "others": 1802,
      "cann": 1803,
      "##ling": 1804,
      "##ife": 1805,
      "##oud": 1806,
      "during": 1807,
      "##eric": 1808,
      "case": 1809,
      "##ided": 1810,
      "opp": 1811,
      "##cted": 1812,
      "underst": 1813,
      "whose": 1814,
      "govern": 1815,
      "##me": 1816,
      "next": 1817,
      "##ific": 1818,
      "est": 1819,
      "port": 1820,
      "##ale": 1821,
      "till": 1822,
      "chap": 1823,
      "voice": 1824,
      "offic": 1825,
      "book": 1826,
      "doub": 1827,
      "since": 1828,
      "cop": 1829,
      "tem": 1830,
      "son": 1831,
      "##ances": 1832,
      "rather": 1833,
      "##ane": 1834,
      "compan": 1835,
      "dear": 1836,
      "mer": 1837,
      "obs": 1838,
      "var": 1839,
      "bri": 1840,
      "##br": 1841,
      "round": 1842,
      "wo": 1843,
      "##ets": 1844,
      "fall": 1845,
      "##iting": 1846,
      "##ok": 1847,
      "felt": 1848,
      "##ually": 1849,
      "trans": 1850,
      "##fully": 1851,
      "##cond": 1852,
      "charact": 1853,
      "air": 1854,
      "themselves": 1855,
      "##laim": 1856,
      "used": 1857,
      "thir": 1858,
      "money": 1859,
      "lay": 1860,
      "fur": 1861,
      "##ude": 1862,
      "real": 1863,
      "unc": 1864,
      "order": 1865,
      "##ott": 1866,
      "gent": 1867,
      "fort": 1868,
      "##ement": 1869,
      "##ians": 1870,
      "hold": 1871,
      "ger": 1872,
      "pat": 1873,
      "second": 1874,
      "began": 1875,
      "##ched": 1876,
      "mem": 1877,
      "true": 1878,
      "stood": 1879,
      "americ": 1880,
      "hund": 1881,
      "##iter": 1882,
      "##ative": 1883,
      "sign": 1884,
      "known": 1885,
      "##ength": 1886,
      "##used": 1887,
      "dark": 1888,
      "hope": 1889,
      "cir": 1890,
      "hist": 1891,
      "prof": 1892,
      "black": 1893,
      "div": 1894,
      "body": 1895,
      "year": 1896,
      "hundred": 1897,
      "cor": 1898,
      "tog": 1899,
      "##iled": 1900,
      "along": 1901,
      "bus": 1902,
      "bur": 1903,
      "sun": 1904,
      "anything": 1905,
      "pain": 1906,
      "together": 1907,
      "cal": 1908,
      "##plied": 1909,
      "sud": 1910,
      "##urch": 1911,
      "speak": 1912,
      "herself": 1913,
      "six": 1914,
      "##enty": 1915,
      "##essed": 1916,
      "consider": 1917,
      "cannot": 1918,
      "##uc": 1919,
      "feet": 1920,
      "##akes": 1921,
      "laugh": 1922,
      "mad": 1923,
      "fire": 1924,
      "disc": 1925,
      "##cul": 1926,
      "above": 1927,
      "aff": 1928,
      "sudden": 1929,
      "mod": 1930,
      "boy": 1931,
      "ide": 1932,
      "often": 1933,
      "produ": 1934,
      "town": 1935,
      "express": 1936,
      "##ient": 1937,
      "##ility": 1938,
      "necess": 1939,
      "##ism": 1940,
      "expl": 1941,
      "sle": 1942,
      "##vers": 1943,
      "coll": 1944,
      "passed": 1945,
      "strong": 1946,
      "pap": 1947,
      "myself": 1948,
      "##ustr": 1949,
      "question": 1950,
      "##ides": 1951,
      "indeed": 1952,
      "short": 1953,
      "english": 1954,
      "##gn": 1955,
      "##hn": 1956,
      "10": 1957,
      "within": 1958,
      "##oc": 1959,
      "means": 1960,
      "forg": 1961,
      "believe": 1962,
      "ge": 1963,
      "church": 1964,
      "tri": 1965,
      "##illed": 1966,
      "##ember": 1967,
      "##ey": 1968,
      "swe": 1969,
      "captain": 1970,
      "reason": 1971,
      "dem": 1972,
      "run": 1973,
      "play": 1974,
      "jud": 1975,
      "obser": 1976,
      "##cial": 1977,
      "character": 1978,
      "sal": 1979,
      "wife": 1980,
      "19": 1981,
      "states": 1982,
      "##fort": 1983,
      "doubt": 1984,
      "number": 1985,
      "repr": 1986,
      "help": 1987,
      "close": 1988,
      "subject": 1989,
      "##ized": 1990,
      "john": 1991,
      "mus": 1992,
      "sing": 1993,
      "several": 1994,
      "wood": 1995,
      "appear": 1996,
      "sea": 1997,
      "start": 1998,
      "##ready": 1999,
      "gentle": 2000,
      "aw": 2001,
      "already": 2002,
      "dev": 2003,
      "fair": 2004,
      "12": 2005,
      "public": 2006,
      "sum": 2007,
      "five": 2008,
      "says": 2009,
      "abs": 2010,
      "##men": 2011,
      "##az": 2012,
      "command": 2013,
      "wonder": 2014,
      "river": 2015,
      "##ah": 2016,
      "##ident": 2017,
      "works": 2018,
      "prev": 2019,
      "free": 2020,
      "mis": 2021,
      "##cious": 2022,
      "talk": 2023,
      "ground": 2024,
      "looking": 2025,
      "##anger": 2026,
      "wish": 2027,
      "##ert": 2028,
      "view": 2029,
      "hear": 2030,
      "requ": 2031,
      "##ned": 2032,
      "letter": 2033,
      "replied": 2034,
      "dead": 2035,
      "tm": 2036,
      "effect": 2037,
      "sn": 2038,
      "bed": 2039,
      "##owing": 2040,
      "##ape": 2041,
      "auth": 2042,
      "##cri": 2043,
      "stre": 2044,
      "nature": 2045,
      "eas": 2046,
      "##ering": 2047,
      "chapter": 2048,
      "bes": 2049,
      "meet": 2050,
      "16": 2051,
      "ten": 2052,
      "rich": 2053,
      "mid": 2054,
      "watch": 2055,
      "alone": 2056,
      "##uss": 2057,
      "times": 2058,
      "wall": 2059,
      "11": 2060,
      "##use": 2061,
      "##itted": 2062,
      "val": 2063,
      "spirit": 2064,
      "med": 2065,
      "pen": 2066,
      "ship": 2067,
      "##esh": 2068,
      "gone": 2069,
      "children": 2070,
      "ru": 2071,
      "answered": 2072,
      "clear": 2073,
      "##ior": 2074,
      "cried": 2075,
      "succ": 2076,
      "##olog": 2077,
      "leave": 2078,
      "##ley": 2079,
      "discover": 2080,
      "er": 2081,
      "circ": 2082,
      "lear": 2083,
      "thou": 2084,
      "##ists": 2085,
      "deep": 2086,
      "illustr": 2087,
      "##ipp": 2088,
      "##ister": 2089,
      "##read": 2090,
      "def": 2091,
      "sound": 2092,
      "import": 2093,
      "city": 2094,
      "french": 2095,
      "##ural": 2096,
      "cast": 2097,
      "##ches": 2098,
      "##ames": 2099,
      "##old": 2100,
      "equ": 2101,
      "##aint": 2102,
      "cut": 2103,
      "##ric": 2104,
      "least": 2105,
      "lead": 2106,
      "##────────": 2107,
      "exam": 2108,
      "understand": 2109,
      "either": 2110,
      "chief": 2111,
      "conc": 2112,
      "arri": 2113,
      "##arr": 2114,
      "fre": 2115,
      "##par": 2116,
      "earth": 2117,
      "14": 2118,
      "therefore": 2119,
      "##eth": 2120,
      "common": 2121,
      "##ards": 2122,
      "arr": 2123,
      "##ury": 2124,
      "##empt": 2125,
      "prob": 2126,
      "whether": 2127,
      "bra": 2128,
      "##ger": 2129,
      "ask": 2130,
      "exp": 2131,
      "##inal": 2132,
      "behind": 2133,
      "held": 2134,
      "##imes": 2135,
      "cross": 2136,
      "road": 2137,
      "diffic": 2138,
      "##iment": 2139,
      "stud": 2140,
      "itself": 2141,
      "prot": 2142,
      "##iam": 2143,
      "##anc": 2144,
      "org": 2145,
      "dri": 2146,
      "incl": 2147,
      "phil": 2148,
      "##ats": 2149,
      "rev": 2150,
      "past": 2151,
      "thous": 2152,
      "possible": 2153,
      "success": 2154,
      "thousand": 2155,
      "low": 2156,
      "je": 2157,
      "##idence": 2158,
      "comple": 2159,
      "pet": 2160,
      "object": 2161,
      "expect": 2162,
      "fell": 2163,
      "partic": 2164,
      "treat": 2165,
      "manner": 2166,
      "account": 2167,
      "##iful": 2168,
      "remember": 2169,
      "##ience": 2170,
      "##ring": 2171,
      "truth": 2172,
      "13": 2173,
      "fear": 2174,
      "become": 2175,
      "stop": 2176,
      "ir": 2177,
      "north": 2178,
      "##iest": 2179,
      "vi": 2180,
      "soul": 2181,
      "##ination": 2182,
      "south": 2183,
      "mag": 2184,
      "bring": 2185,
      "dest": 2186,
      "horse": 2187,
      "purp": 2188,
      "accord": 2189,
      "occas": 2190,
      "exper": 2191,
      "pay": 2192,
      "except": 2193,
      "infl": 2194,
      "##ased": 2195,
      "step": 2196,
      "brother": 2197,
      "##een": 2198,
      "leg": 2199,
      "##gar": 2200,
      "author": 2201,
      "fav": 2202,
      "following": 2203,
      "making": 2204,
      "lea": 2205,
      "different": 2206,
      "blood": 2207,
      "received": 2208,
      "colon": 2209,
      "quick": 2210,
      "sus": 2211,
      "later": 2212,
      "du": 2213,
      "became": 2214,
      "gold": 2215,
      "proper": 2216,
      "hur": 2217,
      "list": 2218,
      "remain": 2219,
      "around": 2220,
      "##tern": 2221,
      "##itions": 2222,
      "sit": 2223,
      "##lly": 2224,
      "women": 2225,
      "ca": 2226,
      "##ives": 2227,
      "ann": 2228,
      "##attle": 2229,
      "##ek": 2230,
      "orig": 2231,
      "lost": 2232,
      "coming": 2233,
      "brit": 2234,
      "line": 2235,
      "business": 2236,
      "sol": 2237,
      "respect": 2238,
      "##oon": 2239,
      "anim": 2240,
      "##ising": 2241,
      "arch": 2242,
      "##mer": 2243,
      "enem": 2244,
      "human": 2245,
      "##ham": 2246,
      "ut": 2247,
      "friends": 2248,
      "##gr": 2249,
      "cra": 2250,
      "##iously": 2251,
      "##be": 2252,
      "doct": 2253,
      "##medi": 2254,
      "school": 2255,
      "##body": 2256,
      "inform": 2257,
      "family": 2258,
      "enter": 2259,
      "##ingly": 2260,
      "sold": 2261,
      "##erm": 2262,
      "appro": 2263,
      "##une": 2264,
      "twenty": 2265,
      "##ety": 2266,
      "early": 2267,
      "mur": 2268,
      "towards": 2269,
      "accom": 2270,
      "table": 2271,
      "england": 2272,
      "fellow": 2273,
      "answer": 2274,
      "dut": 2275,
      "live": 2276,
      "really": 2277,
      "##unt": 2278,
      "bir": 2279,
      "vill": 2280,
      "month": 2281,
      "conv": 2282,
      "##alth": 2283,
      "main": 2284,
      "lim": 2285,
      "direct": 2286,
      "else": 2287,
      "story": 2288,
      "win": 2289,
      "perfect": 2290,
      "##ee": 2291,
      "##ones": 2292,
      "##oken": 2293,
      "pal": 2294,
      "cover": 2295,
      "lab": 2296,
      "##ases": 2297,
      "corn": 2298,
      "walk": 2299,
      "##ented": 2300,
      "elect": 2301,
      "hill": 2302,
      "faith": 2303,
      "evening": 2304,
      "##ountain": 2305,
      "##pend": 2306,
      "da": 2307,
      "bad": 2308,
      "trou": 2309,
      "island": 2310,
      "acr": 2311,
      "post": 2312,
      "##ices": 2313,
      "government": 2314,
      "decl": 2315,
      "cause": 2316,
      "##raph": 2317,
      "returned": 2318,
      "regard": 2319,
      "##ots": 2320,
      "able": 2321,
      "##crib": 2322,
      "maj": 2323,
      "immedi": 2324,
      "sometimes": 2325,
      "fore": 2326,
      "master": 2327,
      "fif": 2328,
      "sort": 2329,
      "arms": 2330,
      "tom": 2331,
      "##airs": 2332,
      "kept": 2333,
      "##mon": 2334,
      "move": 2335,
      "##ues": 2336,
      "mere": 2337,
      "##ina": 2338,
      "##ught": 2339,
      "super": 2340,
      "cold": 2341,
      "pract": 2342,
      "##ize": 2343,
      "followed": 2344,
      "##oura": 2345,
      "##ested": 2346,
      "##antly": 2347,
      "##iar": 2348,
      "##isf": 2349,
      "##anged": 2350,
      "strange": 2351,
      "##io": 2352,
      "pret": 2353,
      "pie": 2354,
      "squ": 2355,
      "emb": 2356,
      "##tend": 2357,
      "position": 2358,
      "##ession": 2359,
      "front": 2360,
      "disp": 2361,
      "wal": 2362,
      "tou": 2363,
      "##ics": 2364,
      "army": 2365,
      "ver": 2366,
      "sight": 2367,
      "fine": 2368,
      "##yal": 2369,
      "stri": 2370,
      "court": 2371,
      "den": 2372,
      "##ection": 2373,
      "contr": 2374,
      "##ope": 2375,
      "esc": 2376,
      "begin": 2377,
      "mist": 2378,
      "beautiful": 2379,
      "thy": 2380,
      "grand": 2381,
      "eye": 2382,
      "occasion": 2383,
      "##uct": 2384,
      "relig": 2385,
      "continued": 2386,
      "repres": 2387,
      "##tained": 2388,
      "party": 2389,
      "further": 2390,
      "seems": 2391,
      "daugh": 2392,
      "##ney": 2393,
      "secret": 2394,
      "suddenly": 2395,
      "rose": 2396,
      "reached": 2397,
      "##der": 2398,
      "##dle": 2399,
      "##ences": 2400,
      "visit": 2401,
      "west": 2402,
      "dream": 2403,
      "nearly": 2404,
      "field": 2405,
      "ready": 2406,
      "stra": 2407,
      "lad": 2408,
      "forth": 2409,
      "##aught": 2410,
      "history": 2411,
      "bit": 2412,
      "vir": 2413,
      "show": 2414,
      "##gy": 2415,
      "princi": 2416,
      "##form": 2417,
      "##ified": 2418,
      "hus": 2419,
      "won": 2420,
      "quar": 2421,
      "particular": 2422,
      "##lled": 2423,
      "##utes": 2424,
      "##sequ": 2425,
      "##ork": 2426,
      "appeared": 2427,
      "##ounded": 2428,
      "liter": 2429,
      "rock": 2430,
      "camp": 2431,
      "pict": 2432,
      "worth": 2433,
      "ty": 2434,
      "##band": 2435,
      "nation": 2436,
      "everything": 2437,
      "hot": 2438,
      "##bers": 2439,
      "wild": 2440,
      "class": 2441,
      "ce": 2442,
      "united": 2443,
      "carried": 2444,
      "force": 2445,
      "mor": 2446,
      "miles": 2447,
      "et": 2448,
      "creat": 2449,
      "quiet": 2450,
      "##ality": 2451,
      "lie": 2452,
      "reco": 2453,
      "##ship": 2454,
      "mountain": 2455,
      "##bert": 2456,
      "across": 2457,
      "peri": 2458,
      "sense": 2459,
      "carry": 2460,
      "plain": 2461,
      "##otion": 2462,
      "influ": 2463,
      "slow": 2464,
      "##inted": 2465,
      "acqu": 2466,
      "satisf": 2467,
      "##ndon": 2468,
      "conn": 2469,
      "##arch": 2470,
      "ii": 2471,
      "##son": 2472,
      "exist": 2473,
      "surpr": 2474,
      "german": 2475,
      "added": 2476,
      "##side": 2477,
      "idea": 2478,
      "##aw": 2479,
      "necessary": 2480,
      "heav": 2481,
      "agre": 2482,
      "sleep": 2483,
      "##itude": 2484,
      "av": 2485,
      "##gress": 2486,
      "scar": 2487,
      "##outh": 2488,
      "##ann": 2489,
      "ant": 2490,
      "##ime": 2491,
      "purpose": 2492,
      "copy": 2493,
      "taking": 2494,
      "ang": 2495,
      "big": 2496,
      "result": 2497,
      "husband": 2498,
      "alth": 2499,
      "period": 2500,
      "age": 2501,
      "jour": 2502,
      "danger": 2503,
      "mark": 2504,
      "bene": 2505,
      "prince": 2506,
      "##ature": 2507,
      "hea": 2508,
      "draw": 2509,
      "pop": 2510,
      "hours": 2511,
      "break": 2512,
      "london": 2513,
      "lang": 2514,
      "##orrow": 2515,
      "bey": 2516,
      "although": 2517,
      "sla": 2518,
      "##app": 2519,
      "##bed": 2520,
      "spoke": 2521,
      "entire": 2522,
      "##itten": 2523,
      "peace": 2524,
      "terms": 2525,
      "deal": 2526,
      "suppose": 2527,
      "jack": 2528,
      "forward": 2529,
      "hast": 2530,
      "affect": 2531,
      "sym": 2532,
      "##cient": 2533,
      "illustration": 2534,
      "din": 2535,
      "##ledge": 2536,
      "build": 2537,
      "proceed": 2538,
      "sugg": 2539,
      "eight": 2540,
      "glad": 2541,
      "pray": 2542,
      "placed": 2543,
      "##yn": 2544,
      "##uted": 2545,
      "##bled": 2546,
      "##inct": 2547,
      "company": 2548,
      "##ption": 2549,
      "led": 2550,
      "##oof": 2551,
      "american": 2552,
      "dom": 2553,
      "vict": 2554,
      "burn": 2555,
      "rid": 2556,
      "longer": 2557,
      "fight": 2558,
      "march": 2559,
      "##laimed": 2560,
      "distrib": 2561,
      "self": 2562,
      "##ges": 2563,
      "##ically": 2564,
      "##itting": 2565,
      "##els": 2566,
      "20": 2567,
      "didn": 2568,
      "##ored": 2569,
      "daughter": 2570,
      "opin": 2571,
      "attempt": 2572,
      "##ask": 2573,
      "beyond": 2574,
      "##val": 2575,
      "living": 2576,
      "##ission": 2577,
      "probably": 2578,
      "##usion": 2579,
      "imag": 2580,
      "##ilt": 2581,
      "enemy": 2582,
      "##inary": 2583,
      "attack": 2584,
      "##que": 2585,
      "perm": 2586,
      "prep": 2587,
      "heaven": 2588,
      "news": 2589,
      "stat": 2590,
      "bill": 2591,
      "000": 2592,
      "stay": 2593,
      "flo": 2594,
      "sin": 2595,
      "toward": 2596,
      "report": 2597,
      "hall": 2598,
      "circum": 2599,
      "##by": 2600,
      "##ef": 2601,
      "neg": 2602,
      "sett": 2603,
      "natural": 2604,
      "soft": 2605,
      "send": 2606,
      "##ster": 2607,
      "##iers": 2608,
      "entered": 2609,
      "##ivid": 2610,
      "##cially": 2611,
      "remark": 2612,
      "##owers": 2613,
      "none": 2614,
      "intr": 2615,
      "certainly": 2616,
      "##aged": 2617,
      "accept": 2618,
      "british": 2619,
      "##where": 2620,
      "change": 2621,
      "mass": 2622,
      "hy": 2623,
      "service": 2624,
      "late": 2625,
      "determ": 2626,
      "##riage": 2627,
      "##oses": 2628,
      "commun": 2629,
      "street": 2630,
      "##ium": 2631,
      "coun": 2632,
      "prison": 2633,
      "##ald": 2634,
      "feeling": 2635,
      "##day": 2636,
      "length": 2637,
      "bear": 2638,
      "mel": 2639,
      "##ously": 2640,
      "occup": 2641,
      "repe": 2642,
      "##ital": 2643,
      "rap": 2644,
      "pretty": 2645,
      "rom": 2646,
      "##ision": 2647,
      "intell": 2648,
      "enc": 2649,
      "empl": 2650,
      "##bs": 2651,
      "ta": 2652,
      "fut": 2653,
      "##bour": 2654,
      "priv": 2655,
      "depart": 2656,
      "queen": 2657,
      "hair": 2658,
      "bank": 2659,
      "incre": 2660,
      "##ugg": 2661,
      "drop": 2662,
      "neither": 2663,
      "##iden": 2664,
      "ves": 2665,
      "##ius": 2666,
      "##ries": 2667,
      "effort": 2668,
      "##erv": 2669,
      "plan": 2670,
      "##oved": 2671,
      "und": 2672,
      "cloth": 2673,
      "##let": 2674,
      "dog": 2675,
      "##ead": 2676,
      "happy": 2677,
      "royal": 2678,
      "boat": 2679,
      "approach": 2680,
      "##iling": 2681,
      "ought": 2682,
      "complete": 2683,
      "latter": 2684,
      "##ils": 2685,
      "##anced": 2686,
      "trad": 2687,
      "inqu": 2688,
      "##velop": 2689,
      "written": 2690,
      "spec": 2691,
      "breat": 2692,
      "##anch": 2693,
      "langu": 2694,
      "impr": 2695,
      "##itch": 2696,
      "##ected": 2697,
      "##cing": 2698,
      "##ening": 2699,
      "appar": 2700,
      "thee": 2701,
      "footn": 2702,
      "##ony": 2703,
      "desp": 2704,
      "occur": 2705,
      "##ustom": 2706,
      "opened": 2707,
      "gri": 2708,
      "bell": 2709,
      "sweet": 2710,
      "former": 2711,
      "green": 2712,
      "##ories": 2713,
      "foundation": 2714,
      "battle": 2715,
      "##stem": 2716,
      "christian": 2717,
      "ast": 2718,
      "ah": 2719,
      "employ": 2720,
      "espe": 2721,
      "anx": 2722,
      "paper": 2723,
      "mill": 2724,
      "saying": 2725,
      "mary": 2726,
      "belong": 2727,
      "bound": 2728,
      "mouth": 2729,
      "hen": 2730,
      "immediately": 2731,
      "neigh": 2732,
      "strength": 2733,
      "system": 2734,
      "cry": 2735,
      "##ze": 2736,
      "gard": 2737,
      "##ral": 2738,
      "doing": 2739,
      "##right": 2740,
      "chance": 2741,
      "##itation": 2742,
      "##ushed": 2743,
      "fle": 2744,
      "ep": 2745,
      "##ume": 2746,
      "various": 2747,
      "sad": 2748,
      "priest": 2749,
      "##ency": 2750,
      "gun": 2751,
      "tal": 2752,
      "loc": 2753,
      "gall": 2754,
      "meas": 2755,
      "##ls": 2756,
      "circumst": 2757,
      "third": 2758,
      "lou": 2759,
      "##ike": 2760,
      "dress": 2761,
      "born": 2762,
      "difficult": 2763,
      "##ract": 2764,
      "##end": 2765,
      "compl": 2766,
      "minutes": 2767,
      "attention": 2768,
      "slight": 2769,
      "frank": 2770,
      "below": 2771,
      "##owd": 2772,
      "die": 2773,
      "##amed": 2774,
      "gentleman": 2775,
      "window": 2776,
      "electron": 2777,
      "knowledge": 2778,
      "france": 2779,
      "distance": 2780,
      "future": 2781,
      "21": 2782,
      "top": 2783,
      "inn": 2784,
      "##itive": 2785,
      "##eness": 2786,
      "soci": 2787,
      "fast": 2788,
      "lu": 2789,
      "mention": 2790,
      "obl": 2791,
      "geor": 2792,
      "##ancy": 2793,
      "concl": 2794,
      "died": 2795,
      "remained": 2796,
      "delight": 2797,
      "bright": 2798,
      "comes": 2799,
      "formed": 2800,
      "##rop": 2801,
      "##ivers": 2802,
      "##oes": 2803,
      "note": 2804,
      "hung": 2805,
      "important": 2806,
      "footnote": 2807,
      "25": 2808,
      "der": 2809,
      "joy": 2810,
      "##ny": 2811,
      "doctor": 2812,
      "##dom": 2813,
      "describ": 2814,
      "office": 2815,
      "oper": 2816,
      "laid": 2817,
      "viol": 2818,
      "##isted": 2819,
      "appearance": 2820,
      "parts": 2821,
      "eur": 2822,
      "suffic": 2823,
      "##ixed": 2824,
      "narr": 2825,
      "##pan": 2826,
      "support": 2827,
      "especially": 2828,
      "##king": 2829,
      "hors": 2830,
      "comfort": 2831,
      "trees": 2832,
      "consequ": 2833,
      "##atic": 2834,
      "mess": 2835,
      "individ": 2836,
      "phys": 2837,
      "develop": 2838,
      "22": 2839,
      "enj": 2840,
      "wanted": 2841,
      "sens": 2842,
      "ago": 2843,
      "##uit": 2844,
      "##ging": 2845,
      "greater": 2846,
      "cost": 2847,
      "##ples": 2848,
      "##ites": 2849,
      "imm": 2850,
      "##ille": 2851,
      "demand": 2852,
      "convers": 2853,
      "heavy": 2854,
      "ran": 2855,
      "hop": 2856,
      "save": 2857,
      "##ec": 2858,
      "##ager": 2859,
      "##reme": 2860,
      "tried": 2861,
      "##ode": 2862,
      "individual": 2863,
      "colonel": 2864,
      "uncle": 2865,
      "silence": 2866,
      "includ": 2867,
      "paid": 2868,
      "board": 2869,
      "condition": 2870,
      "duty": 2871,
      "boys": 2872,
      "sister": 2873,
      "organ": 2874,
      "##hood": 2875,
      "##res": 2876,
      "trust": 2877,
      "separ": 2878,
      "ur": 2879,
      "##uce": 2880,
      "exh": 2881,
      "whate": 2882,
      "##oured": 2883,
      "resol": 2884,
      "admir": 2885,
      "electronic": 2886,
      "imposs": 2887,
      "conce": 2888,
      "stone": 2889,
      "according": 2890,
      "address": 2891,
      "recogn": 2892,
      "scarce": 2893,
      "##eless": 2894,
      "pleasure": 2895,
      "situ": 2896,
      "24": 2897,
      "standing": 2898,
      "opinion": 2899,
      "##rupt": 2900,
      "##ai": 2901,
      "##fer": 2902,
      "whatever": 2903,
      "frequ": 2904,
      "presence": 2905,
      "refer": 2906,
      "estab": 2907,
      "charge": 2908,
      "perform": 2909,
      "try": 2910,
      "hab": 2911,
      "asso": 2912,
      "rob": 2913,
      "whis": 2914,
      "##aded": 2915,
      "east": 2916,
      "horses": 2917,
      "##eks": 2918,
      "civ": 2919,
      "food": 2920,
      "paris": 2921,
      "##ming": 2922,
      "##ises": 2923,
      "##thern": 2924,
      "instead": 2925,
      "happened": 2926,
      "appl": 2927,
      "fat": 2928,
      "##ping": 2929,
      "press": 2930,
      "europe": 2931,
      "earl": 2932,
      "wrong": 2933,
      "blue": 2934,
      "associ": 2935,
      "cases": 2936,
      "troo": 2937,
      "23": 2938,
      "filled": 2939,
      "##enth": 2940,
      "arrived": 2941,
      "months": 2942,
      "fresh": 2943,
      "meant": 2944,
      "thick": 2945,
      "##ilar": 2946,
      "trouble": 2947,
      "exclaimed": 2948,
      "##ese": 2949,
      "bro": 2950,
      "action": 2951,
      "lived": 2952,
      "letters": 2953,
      "##ining": 2954,
      "wide": 2955,
      "polit": 2956,
      "dam": 2957,
      "shar": 2958,
      "glass": 2959,
      "figure": 2960,
      "weak": 2961,
      "brown": 2962,
      "##uff": 2963,
      "slowly": 2964,
      "smile": 2965,
      "grou": 2966,
      "deg": 2967,
      "rapid": 2968,
      "meth": 2969,
      "alt": 2970,
      "week": 2971,
      "crowd": 2972,
      "youth": 2973,
      "tur": 2974,
      "lips": 2975,
      "teach": 2976,
      "makes": 2977,
      "##teen": 2978,
      "terri": 2979,
      "##itary": 2980,
      "safe": 2981,
      "##iety": 2982,
      "generally": 2983,
      "van": 2984,
      "##ler": 2985,
      "thor": 2986,
      "information": 2987,
      "william": 2988,
      "broken": 2989,
      "##raid": 2990,
      "yourself": 2991,
      "easy": 2992,
      "##uous": 2993,
      "desire": 2994,
      "contain": 2995,
      "vessel": 2996,
      "impossible": 2997,
      "bott": 2998,
      "##eder": 2999,
      "##well": 3000,
      "grow": 3001,
      "major": 3002,
      "cab": 3003,
      "steam": 3004,
      "##ctions": 3005,
      "seeing": 3006,
      "outside": 3007,
      "hardly": 3008,
      "middle": 3009,
      "capt": 3010,
      "introdu": 3011,
      "##ply": 3012,
      "30": 3013,
      "persons": 3014,
      "tree": 3015,
      "cre": 3016,
      "clock": 3017,
      "train": 3018,
      "beauty": 3019,
      "##urs": 3020,
      "afraid": 3021,
      "mine": 3022,
      "single": 3023,
      "ow": 3024,
      "##uel": 3025,
      "##ounds": 3026,
      "bird": 3027,
      "laws": 3028,
      "resp": 3029,
      "##ument": 3030,
      "##cience": 3031,
      "##iced": 3032,
      "grace": 3033,
      "##ests": 3034,
      "unless": 3035,
      "spr": 3036,
      "please": 3037,
      "pick": 3038,
      "influence": 3039,
      "wit": 3040,
      "covered": 3041,
      "society": 3042,
      "##cell": 3043,
      "impress": 3044,
      "sick": 3045,
      "##bur": 3046,
      "afterwards": 3047,
      "fun": 3048,
      "fool": 3049,
      "raised": 3050,
      "xx": 3051,
      "thinking": 3052,
      "pun": 3053,
      "##bling": 3054,
      "##ma": 3055,
      "liber": 3056,
      "exact": 3057,
      "##oph": 3058,
      "##oose": 3059,
      "agree": 3060,
      "somewh": 3061,
      "somewhat": 3062,
      "poet": 3063,
      "village": 3064,
      "chair": 3065,
      "origin": 3066,
      "drink": 3067,
      "famil": 3068,
      "hu": 3069,
      "cam": 3070,
      "walked": 3071,
      "##idge": 3072,
      "path": 3073,
      "york": 3074,
      "fish": 3075,
      "beginning": 3076,
      "dinner": 3077,
      "##iii": 3078,
      "quickly": 3079,
      "officers": 3080,
      "ancient": 3081,
      "##══": 3082,
      "##ator": 3083,
      "shad": 3084,
      "purs": 3085,
      "george": 3086,
      "opport": 3087,
      "struck": 3088,
      "##ouses": 3089,
      "places": 3090,
      "fing": 3091,
      "suc": 3092,
      "trib": 3093,
      "besides": 3094,
      "28": 3095,
      "beat": 3096,
      "succeed": 3097,
      "represent": 3098,
      "guard": 3099,
      "##ament": 3100,
      "civil": 3101,
      "direction": 3102,
      "iv": 3103,
      "breath": 3104,
      "##oted": 3105,
      "lower": 3106,
      "##itable": 3107,
      "sand": 3108,
      "loved": 3109,
      "wait": 3110,
      "similar": 3111,
      "##wise": 3112,
      "constit": 3113,
      "##pped": 3114,
      "becom": 3115,
      "leaving": 3116,
      "##iding": 3117,
      "warm": 3118,
      "tone": 3119,
      "method": 3120,
      "artic": 3121,
      "simple": 3122,
      "giving": 3123,
      "##ift": 3124,
      "opportun": 3125,
      "discovered": 3126,
      "box": 3127,
      "eat": 3128,
      "fla": 3129,
      "temper": 3130,
      "thirty": 3131,
      "accompan": 3132,
      "music": 3133,
      "ball": 3134,
      "drew": 3135,
      "language": 3136,
      "##head": 3137,
      "revol": 3138,
      "milk": 3139,
      "expression": 3140,
      "grave": 3141,
      "caught": 3142,
      "furn": 3143,
      "##tended": 3144,
      "##acy": 3145,
      "touch": 3146,
      "##cil": 3147,
      "notice": 3148,
      "mal": 3149,
      "##uly": 3150,
      "26": 3151,
      "mater": 3152,
      "thoughts": 3153,
      "##ett": 3154,
      "seven": 3155,
      "##ourage": 3156,
      "terr": 3157,
      "host": 3158,
      "usual": 3159,
      "started": 3160,
      "health": 3161,
      "spring": 3162,
      "journey": 3163,
      "learn": 3164,
      "##ively": 3165,
      "jew": 3166,
      "laughed": 3167,
      "siden": 3168,
      "gather": 3169,
      "sidenote": 3170,
      "##ended": 3171,
      "une": 3172,
      "page": 3173,
      "##ien": 3174,
      "##cles": 3175,
      "knows": 3176,
      "indic": 3177,
      "easily": 3178,
      "lat": 3179,
      "girls": 3180,
      "books": 3181,
      "bow": 3182,
      "scene": 3183,
      "27": 3184,
      "##osing": 3185,
      "getting": 3186,
      "gree": 3187,
      "entirely": 3188,
      "wrote": 3189,
      "##lling": 3190,
      "##aled": 3191,
      "possib": 3192,
      "sav": 3193,
      "enjoy": 3194,
      "##yl": 3195,
      "circumstances": 3196,
      "##ech": 3197,
      "span": 3198,
      "peter": 3199,
      "eb": 3200,
      "mir": 3201,
      "surr": 3202,
      "##ford": 3203,
      "pros": 3204,
      "moved": 3205,
      "ber": 3206,
      "##pic": 3207,
      "honour": 3208,
      "wes": 3209,
      "gaz": 3210,
      "iii": 3211,
      "##iant": 3212,
      "defe": 3213,
      "merely": 3214,
      "##cription": 3215,
      "destro": 3216,
      "##for": 3217,
      "whe": 3218,
      "neck": 3219,
      "piece": 3220,
      "##gment": 3221,
      "cult": 3222,
      "henry": 3223,
      "##erve": 3224,
      "surf": 3225,
      "extra": 3226,
      "garden": 3227,
      "##ara": 3228,
      "shell": 3229,
      "ign": 3230,
      "assist": 3231,
      "fash": 3232,
      "fal": 3233,
      "##aff": 3234,
      "##ole": 3235,
      "educ": 3236,
      "observed": 3237,
      "cell": 3238,
      "considered": 3239,
      "test": 3240,
      "pot": 3241,
      "forgot": 3242,
      "##bles": 3243,
      "considerable": 3244,
      "##ob": 3245,
      "thank": 3246,
      "ham": 3247,
      "scarcely": 3248,
      "stream": 3249,
      "produced": 3250,
      "189": 3251,
      "troops": 3252,
      "##aped": 3253,
      "pull": 3254,
      "process": 3255,
      "iron": 3256,
      "##ains": 3257,
      "stopped": 3258,
      "hat": 3259,
      "waiting": 3260,
      "univers": 3261,
      "corr": 3262,
      "killed": 3263,
      "inh": 3264,
      "houses": 3265,
      "##gl": 3266,
      "##unk": 3267,
      "aug": 3268,
      "straight": 3269,
      "aftern": 3270,
      "##ump": 3271,
      "deb": 3272,
      "##por": 3273,
      "strugg": 3274,
      "tears": 3275,
      "##ays": 3276,
      "holy": 3277,
      "excell": 3278,
      "imper": 3279,
      "##osp": 3280,
      "##ograph": 3281,
      "fly": 3282,
      "literary": 3283,
      "agreement": 3284,
      "cla": 3285,
      "ly": 3286,
      "vent": 3287,
      "29": 3288,
      "speaking": 3289,
      "advant": 3290,
      "##dd": 3291,
      "##imate": 3292,
      "cook": 3293,
      "cou": 3294,
      "##mn": 3295,
      "bread": 3296,
      "evil": 3297,
      "shout": 3298,
      "magn": 3299,
      "##appe": 3300,
      "century": 3301,
      "lic": 3302,
      "tender": 3303,
      "inj": 3304,
      "animal": 3305,
      "##┼────────": 3306,
      "jean": 3307,
      "pecul": 3308,
      "picture": 3309,
      "officer": 3310,
      "fashion": 3311,
      "##ology": 3312,
      "adj": 3313,
      "forget": 3314,
      "floor": 3315,
      "##str": 3316,
      "sam": 3317,
      "spot": 3318,
      "changed": 3319,
      "peculiar": 3320,
      "eager": 3321,
      "afternoon": 3322,
      "oblig": 3323,
      "dece": 3324,
      "cloud": 3325,
      "vall": 3326,
      "arg": 3327,
      "##iction": 3328,
      "indian": 3329,
      "expected": 3330,
      "##ik": 3331,
      "religion": 3332,
      "song": 3333,
      "loss": 3334,
      "special": 3335,
      "mut": 3336,
      "##ingu": 3337,
      "lines": 3338,
      "ven": 3339,
      "sole": 3340,
      "america": 3341,
      "utter": 3342,
      "broad": 3343,
      "##ishop": 3344,
      "madame": 3345,
      "learned": 3346,
      "##elve": 3347,
      "##bo": 3348,
      "modern": 3349,
      "showed": 3350,
      "fit": 3351,
      "hes": 3352,
      "repeated": 3353,
      "bas": 3354,
      "##tt": 3355,
      "national": 3356,
      "conversation": 3357,
      "noble": 3358,
      "original": 3359,
      "comb": 3360,
      "crown": 3361,
      "##vey": 3362,
      "whisper": 3363,
      "shot": 3364,
      "##oom": 3365,
      "judge": 3366,
      "experience": 3367,
      "colum": 3368,
      "lives": 3369,
      "shore": 3370,
      "finally": 3371,
      "refle": 3372,
      "##udd": 3373,
      "custom": 3374,
      "##erous": 3375,
      "spread": 3376,
      "russ": 3377,
      "record": 3378,
      "rail": 3379,
      "attend": 3380,
      "hun": 3381,
      "snow": 3382,
      "writing": 3383,
      "drawn": 3384,
      "##nding": 3385,
      "##ulty": 3386,
      "receive": 3387,
      "sac": 3388,
      "ere": 3389,
      "supposed": 3390,
      "##ication": 3391,
      "##erc": 3392,
      "due": 3393,
      "soldiers": 3394,
      "foreign": 3395,
      "##go": 3396,
      "escape": 3397,
      "firm": 3398,
      "write": 3399,
      "race": 3400,
      "section": 3401,
      "##umed": 3402,
      "sitting": 3403,
      "sail": 3404,
      "##ruction": 3405,
      "exec": 3406,
      "##na": 3407,
      "grew": 3408,
      "coast": 3409,
      "gar": 3410,
      "evidence": 3411,
      "dread": 3412,
      "##path": 3413,
      "fer": 3414,
      "bab": 3415,
      "hom": 3416,
      "##ulation": 3417,
      "determined": 3418,
      "lift": 3419,
      "forms": 3420,
      "yell": 3421,
      "sor": 3422,
      "##illa": 3423,
      "allowed": 3424,
      "dim": 3425,
      "possession": 3426,
      "mot": 3427,
      "amount": 3428,
      "apart": 3429,
      "silent": 3430,
      "passing": 3431,
      "reply": 3432,
      "mount": 3433,
      "cat": 3434,
      "##bor": 3435,
      "conduct": 3436,
      "station": 3437,
      "mach": 3438,
      "##aries": 3439,
      "bal": 3440,
      "summer": 3441,
      "material": 3442,
      "minute": 3443,
      "##ayed": 3444,
      "difficulty": 3445,
      "stage": 3446,
      "wid": 3447,
      "broke": 3448,
      "progress": 3449,
      "storm": 3450,
      "decided": 3451,
      "##esp": 3452,
      "passion": 3453,
      "profess": 3454,
      "turning": 3455,
      "##gin": 3456,
      "study": 3457,
      "##vation": 3458,
      "marriage": 3459,
      "closed": 3460,
      "trave": 3461,
      "ren": 3462,
      "##ette": 3463,
      "walls": 3464,
      "personal": 3465,
      "crit": 3466,
      "charles": 3467,
      "cham": 3468,
      "band": 3469,
      "married": 3470,
      "##ival": 3471,
      "di": 3472,
      "50": 3473,
      "##iance": 3474,
      "##light": 3475,
      "##arily": 3476,
      "beside": 3477,
      "ital": 3478,
      "extreme": 3479,
      "##nal": 3480,
      "opportunity": 3481,
      "mort": 3482,
      "private": 3483,
      "##ables": 3484,
      "surface": 3485,
      "orders": 3486,
      "dav": 3487,
      "distingu": 3488,
      "##istic": 3489,
      "##ached": 3490,
      "destroy": 3491,
      "ice": 3492,
      "claim": 3493,
      "jan": 3494,
      "tast": 3495,
      "##esty": 3496,
      "appears": 3497,
      "allow": 3498,
      "stock": 3499,
      "washing": 3500,
      "favour": 3501,
      "##ores": 3502,
      "trem": 3503,
      "earn": 3504,
      "sword": 3505,
      "conscious": 3506,
      "fifty": 3507,
      "likely": 3508,
      "##come": 3509,
      "silver": 3510,
      "sen": 3511,
      "dry": 3512,
      "meeting": 3513,
      "terrible": 3514,
      "##action": 3515,
      "obtain": 3516,
      "rain": 3517,
      "native": 3518,
      "distinct": 3519,
      "steps": 3520,
      "greatest": 3521,
      "bod": 3522,
      "jes": 3523,
      "hol": 3524,
      "dise": 3525,
      "prim": 3526,
      "cler": 3527,
      "property": 3528,
      "design": 3529,
      "##ville": 3530,
      "intellig": 3531,
      "##ipped": 3532,
      "surprise": 3533,
      "value": 3534,
      "grad": 3535,
      "absol": 3536,
      "cav": 3537,
      "calm": 3538,
      "##under": 3539,
      "ladies": 3540,
      "lot": 3541,
      "##cked": 3542,
      "tit": 3543,
      "goes": 3544,
      "star": 3545,
      "##hip": 3546,
      "bitter": 3547,
      "##yr": 3548,
      "san": 3549,
      "declared": 3550,
      "##ishment": 3551,
      "passage": 3552,
      "##iments": 3553,
      "rul": 3554,
      "winter": 3555,
      "addition": 3556,
      "##uses": 3557,
      "detail": 3558,
      "ebook": 3559,
      "doll": 3560,
      "usually": 3561,
      "depend": 3562,
      "believed": 3563,
      "disappe": 3564,
      "etc": 3565,
      "render": 3566,
      "lake": 3567,
      "search": 3568,
      "duke": 3569,
      "favor": 3570,
      "labour": 3571,
      "suggest": 3572,
      "hosp": 3573,
      "##nday": 3574,
      "term": 3575,
      "deliver": 3576,
      "delic": 3577,
      "kill": 3578,
      "sympath": 3579,
      "inhab": 3580,
      "colour": 3581,
      "##ointed": 3582,
      "bay": 3583,
      "##ification": 3584,
      "wished": 3585,
      "working": 3586,
      "fixed": 3587,
      "wel": 3588,
      "trying": 3589,
      "appre": 3590,
      "corner": 3591,
      "social": 3592,
      "ess": 3593,
      "loud": 3594,
      "concern": 3595,
      "pure": 3596,
      "##orth": 3597,
      "displ": 3598,
      "##anted": 3599,
      "described": 3600,
      "princip": 3601,
      "relief": 3602,
      "subst": 3603,
      "louis": 3604,
      "meaning": 3605,
      "conqu": 3606,
      "beneath": 3607,
      "##erable": 3608,
      "##rict": 3609,
      "disg": 3610,
      "offered": 3611,
      "speech": 3612,
      "##inite": 3613,
      "blind": 3614,
      "morrow": 3615,
      "rank": 3616,
      "31": 3617,
      "possess": 3618,
      "prepared": 3619,
      "##ees": 3620,
      "##ires": 3621,
      "serious": 3622,
      "pock": 3623,
      "nav": 3624,
      "ine": 3625,
      "##sem": 3626,
      "kiss": 3627,
      "wouldn": 3628,
      "isn": 3629,
      "fortune": 3630,
      "##ams": 3631,
      "matters": 3632,
      "fol": 3633,
      "uns": 3634,
      "##ify": 3635,
      "##wood": 3636,
      "understood": 3637,
      "situation": 3638,
      "reb": 3639,
      "military": 3640,
      "ange": 3641,
      "gives": 3642,
      "pleasant": 3643,
      "license": 3644,
      "##erved": 3645,
      "desce": 3646,
      "##che": 3647,
      "sacri": 3648,
      "existence": 3649,
      "built": 3650,
      "mission": 3651,
      "wise": 3652,
      "##fast": 3653,
      "##va": 3654,
      "reading": 3655,
      "lying": 3656,
      "evid": 3657,
      "sky": 3658,
      "neighbour": 3659,
      "absolute": 3660,
      "##zz": 3661,
      "amb": 3662,
      "animals": 3663,
      "moon": 3664,
      "engaged": 3665,
      "marked": 3666,
      "myst": 3667,
      "##itor": 3668,
      "discuss": 3669,
      "aunt": 3670,
      "weeks": 3671,
      "tong": 3672,
      "advent": 3673,
      "##asm": 3674,
      "seat": 3675,
      "##eds": 3676,
      "fail": 3677,
      "32": 3678,
      "proud": 3679,
      "##ability": 3680,
      "sufficient": 3681,
      "perfectly": 3682,
      "fright": 3683,
      "parag": 3684,
      "suffer": 3685,
      "hero": 3686,
      "authority": 3687,
      "interesting": 3688,
      "##get": 3689,
      "group": 3690,
      "justice": 3691,
      "egg": 3692,
      "##zen": 3693,
      "scot": 3694,
      "ordered": 3695,
      "higher": 3696,
      "cup": 3697,
      "bull": 3698,
      "witness": 3699,
      "salt": 3700,
      "##osite": 3701,
      "rise": 3702,
      "recover": 3703,
      "shut": 3704,
      "conditions": 3705,
      "talking": 3706,
      "religious": 3707,
      "cath": 3708,
      "mentioned": 3709,
      "simply": 3710,
      "bishop": 3711,
      "princess": 3712,
      "##iently": 3713,
      "ring": 3714,
      "questions": 3715,
      "example": 3716,
      "##cks": 3717,
      "james": 3718,
      "copyright": 3719,
      "caused": 3720,
      "##lace": 3721,
      "building": 3722,
      "named": 3723,
      "exerc": 3724,
      "twelve": 3725,
      "looks": 3726,
      "franc": 3727,
      "##oe": 3728,
      "accompl": 3729,
      "running": 3730,
      "vain": 3731,
      "cand": 3732,
      "iss": 3733,
      "wounded": 3734,
      "colle": 3735,
      "sides": 3736,
      "##ishing": 3737,
      "wis": 3738,
      "instant": 3739,
      "rule": 3740,
      "movement": 3741,
      "quarter": 3742,
      "sacrif": 3743,
      "tall": 3744,
      "promise": 3745,
      "names": 3746,
      "farm": 3747,
      "proved": 3748,
      "philos": 3749,
      "tax": 3750,
      "frequently": 3751,
      "sev": 3752,
      "pleased": 3753,
      "histor": 3754,
      "##jo": 3755,
      "gate": 3756,
      "motion": 3757,
      "murder": 3758,
      "pan": 3759,
      "corresp": 3760,
      "height": 3761,
      "marry": 3762,
      "##af": 3763,
      "tow": 3764,
      "members": 3765,
      "listen": 3766,
      "sour": 3767,
      "pieces": 3768,
      "spoken": 3769,
      "sharp": 3770,
      "labor": 3771,
      "cred": 3772,
      "august": 3773,
      "ende": 3774,
      "##anging": 3775,
      "worse": 3776,
      "correspond": 3777,
      "gh": 3778,
      "cho": 3779,
      "corre": 3780,
      "happiness": 3781,
      "aston": 3782,
      "sty": 3783,
      "paragraph": 3784,
      "##iles": 3785,
      "false": 3786,
      "smiled": 3787,
      "threat": 3788,
      "fate": 3789,
      "mas": 3790,
      "importance": 3791,
      "stir": 3792,
      "degree": 3793,
      "##uments": 3794,
      "speed": 3795,
      "ris": 3796,
      "ash": 3797,
      "clean": 3798,
      "courage": 3799,
      "##arked": 3800,
      "portion": 3801,
      "spite": 3802,
      "honor": 3803,
      "##ensive": 3804,
      "provided": 3805,
      "opposite": 3806,
      "narrow": 3807,
      "##oint": 3808,
      "##ipe": 3809,
      "emper": 3810,
      "palace": 3811,
      "offer": 3812,
      "forty": 3813,
      "removed": 3814,
      "thin": 3815,
      "including": 3816,
      "weather": 3817,
      "wealth": 3818,
      "##ization": 3819,
      "carefully": 3820,
      "regiment": 3821,
      "advantage": 3822,
      "ga": 3823,
      "virt": 3824,
      "ignor": 3825,
      "##retched": 3826,
      "knight": 3827,
      "castle": 3828,
      "wonderful": 3829,
      "##fortun": 3830,
      "##oid": 3831,
      "proof": 3832,
      "equal": 3833,
      "ment": 3834,
      "##mond": 3835,
      "fee": 3836,
      "compar": 3837,
      "couldn": 3838,
      "instance": 3839,
      "prevent": 3840,
      "mart": 3841,
      "ourselves": 3842,
      "entr": 3843,
      "anxious": 3844,
      "##ashed": 3845,
      "##uded": 3846,
      "prec": 3847,
      "education": 3848,
      "mountains": 3849,
      "##lend": 3850,
      "afford": 3851,
      "species": 3852,
      "sele": 3853,
      "darkness": 3854,
      "popular": 3855,
      "weight": 3856,
      "greatly": 3857,
      "valley": 3858,
      "space": 3859,
      "trade": 3860,
      "shown": 3861,
      "jim": 3862,
      "fully": 3863,
      "##rant": 3864,
      "##uls": 3865,
      "curious": 3866,
      "pale": 3867,
      "##reg": 3868,
      "##amb": 3869,
      "##attered": 3870,
      "aut": 3871,
      "presently": 3872,
      "fallen": 3873,
      "regular": 3874,
      "##ulf": 3875,
      "assem": 3876,
      "lands": 3877,
      "surely": 3878,
      "access": 3879,
      "leaves": 3880,
      "perce": 3881,
      "apparently": 3882,
      "suppl": 3883,
      "cow": 3884,
      "flowers": 3885,
      "threw": 3886,
      "##over": 3887,
      "unk": 3888,
      "##ounced": 3889,
      "serve": 3890,
      "vast": 3891,
      "##mber": 3892,
      "indians": 3893,
      "ways": 3894,
      "opening": 3895,
      "jer": 3896,
      "unf": 3897,
      "washington": 3898,
      "particularly": 3899,
      "rising": 3900,
      "##gypt": 3901,
      "##oned": 3902,
      "##ancing": 3903,
      "fill": 3904,
      "ones": 3905,
      "donations": 3906,
      "thorough": 3907,
      "brave": 3908,
      "cheer": 3909,
      "ears": 3910,
      "shook": 3911,
      "spent": 3912,
      "affairs": 3913,
      "bottom": 3914,
      "##bly": 3915,
      "heads": 3916,
      "dish": 3917,
      "##ios": 3918,
      "##nds": 3919,
      "virgin": 3920,
      "egypt": 3921,
      "presented": 3922,
      "##ama": 3923,
      "sake": 3924,
      "##cent": 3925,
      "sorry": 3926,
      "interp": 3927,
      "catch": 3928,
      "33": 3929,
      "cit": 3930,
      "wat": 3931,
      "germ": 3932,
      "affection": 3933,
      "dism": 3934,
      "servant": 3935,
      "square": 3936,
      "disapp": 3937,
      "official": 3938,
      "dan": 3939,
      "science": 3940,
      "memory": 3941,
      "prove": 3942,
      "remains": 3943,
      "required": 3944,
      "bag": 3945,
      "holding": 3946,
      "arrange": 3947,
      "treatment": 3948,
      "shop": 3949,
      "ordinary": 3950,
      "date": 3951,
      "evidently": 3952,
      "##amm": 3953,
      "lean": 3954,
      "wand": 3955,
      "takes": 3956,
      "exped": 3957,
      "points": 3958,
      "independ": 3959,
      "upper": 3960,
      "mons": 3961,
      "drawing": 3962,
      "##iny": 3963,
      "##ata": 3964,
      "empt": 3965,
      "nine": 3966,
      "##gen": 3967,
      "transl": 3968,
      "intended": 3969,
      "interv": 3970,
      "err": 3971,
      "forced": 3972,
      "sigh": 3973,
      "##erted": 3974,
      "spirits": 3975,
      "emperor": 3976,
      "35": 3977,
      "ps": 3978,
      "governor": 3979,
      "indust": 3980,
      "numerous": 3981,
      "43": 3982,
      "##asc": 3983,
      "grat": 3984,
      "companion": 3985,
      "bent": 3986,
      "hills": 3987,
      "david": 3988,
      "finished": 3989,
      "##rel": 3990,
      "##ners": 3991,
      "rever": 3992,
      "familiar": 3993,
      "published": 3994,
      "mich": 3995,
      "roman": 3996,
      "habit": 3997,
      "hath": 3998,
      "ze": 3999,
      "splend": 4000,
      "stranger": 4001,
      "glance": 4002,
      "extent": 4003,
      "endeav": 4004,
      "thrown": 4005,
      "keeping": 4006,
      "promised": 4007,
      "hence": 4008,
      "exactly": 4009,
      "paul": 4010,
      "##utions": 4011,
      "##ception": 4012,
      "##uf": 4013,
      "dar": 4014,
      "belief": 4015,
      "##cts": 4016,
      "pack": 4017,
      "greek": 4018,
      "lod": 4019,
      "apr": 4020,
      "description": 4021,
      "constant": 4022,
      "##uting": 4023,
      "##inese": 4024,
      "card": 4025,
      "##con": 4026,
      "vic": 4027,
      "rh": 4028,
      "tea": 4029,
      "aid": 4030,
      "##uced": 4031,
      "breast": 4032,
      "aver": 4033,
      "ban": 4034,
      "jesus": 4035,
      "##iqu": 4036,
      "dick": 4037,
      "birth": 4038,
      "34": 4039,
      "voy": 4040,
      "##ois": 4041,
      "yellow": 4042,
      "obtained": 4043,
      "##iving": 4044,
      "feelings": 4045,
      "distant": 4046,
      "##mit": 4047,
      "##antic": 4048,
      "inhabit": 4049,
      "served": 4050,
      "alar": 4051,
      "bless": 4052,
      "rub": 4053,
      "hid": 4054,
      "luck": 4055,
      "##ially": 4056,
      "earnest": 4057,
      "breakfast": 4058,
      "occupied": 4059,
      "sup": 4060,
      "##istr": 4061,
      "bold": 4062,
      "##like": 4063,
      "pointed": 4064,
      "pride": 4065,
      "tub": 4066,
      "committ": 4067,
      "share": 4068,
      "confidence": 4069,
      "rare": 4070,
      "president": 4071,
      "political": 4072,
      "powers": 4073,
      "daily": 4074,
      "watched": 4075,
      "##eper": 4076,
      "ain": 4077,
      "##ns": 4078,
      "phr": 4079,
      "##rey": 4080,
      "##ogether": 4081,
      "divine": 4082,
      "papers": 4083,
      "altogether": 4084,
      "##itated": 4085,
      "suspic": 4086,
      "cous": 4087,
      "skin": 4088,
      "##bid": 4089,
      "price": 4090,
      "capital": 4091,
      "require": 4092,
      "##pected": 4093,
      "ben": 4094,
      "edition": 4095,
      "honest": 4096,
      "principal": 4097,
      "blow": 4098,
      "event": 4099,
      "191": 4100,
      "professor": 4101,
      "plate": 4102,
      "clothes": 4103,
      "40": 4104,
      "maid": 4105,
      "difference": 4106,
      "36": 4107,
      "gentlemen": 4108,
      "clearly": 4109,
      "philip": 4110,
      "pos": 4111,
      "whil": 4112,
      "wear": 4113,
      "knowing": 4114,
      "##ieur": 4115,
      "prefer": 4116,
      "rough": 4117,
      "diss": 4118,
      "burst": 4119,
      "events": 4120,
      "remarkable": 4121,
      "##urally": 4122,
      "fruit": 4123,
      "ell": 4124,
      "tail": 4125,
      "unw": 4126,
      "measure": 4127,
      "suggested": 4128,
      "obliged": 4129,
      "deck": 4130,
      "fem": 4131,
      "188": 4132,
      "rate": 4133,
      "brain": 4134,
      "facts": 4135,
      "excellent": 4136,
      "bare": 4137,
      "grass": 4138,
      "fancy": 4139,
      "merch": 4140,
      "agreed": 4141,
      "flor": 4142,
      "##lin": 4143,
      "proc": 4144,
      "proceeded": 4145,
      "explained": 4146,
      "excl": 4147,
      "##ada": 4148,
      "fortun": 4149,
      "cabin": 4150,
      "worthy": 4151,
      "resem": 4152,
      "woods": 4153,
      "benef": 4154,
      "possessed": 4155,
      "##to": 4156,
      "advanced": 4157,
      "brig": 4158,
      "thom": 4159,
      "district": 4160,
      "whilst": 4161,
      "aud": 4162,
      "ale": 4163,
      "trium": 4164,
      "directly": 4165,
      "vers": 4166,
      "##icked": 4167,
      "dropped": 4168,
      "instr": 4169,
      "##nes": 4170,
      "##atory": 4171,
      "cruel": 4172,
      "##atures": 4173,
      "##usted": 4174,
      "establish": 4175,
      "adop": 4176,
      "forgotten": 4177,
      "##others": 4178,
      "becomes": 4179,
      "pictures": 4180,
      "kingdom": 4181,
      "travel": 4182,
      "otherwise": 4183,
      "soldier": 4184,
      "chinese": 4185,
      "vig": 4186,
      "##acle": 4187,
      "##gged": 4188,
      "explan": 4189,
      "efforts": 4190,
      "brief": 4191,
      "batt": 4192,
      "37": 4193,
      "southern": 4194,
      "stick": 4195,
      "park": 4196,
      "quietly": 4197,
      "##isc": 4198,
      "taste": 4199,
      "mat": 4200,
      "wine": 4201,
      "regarded": 4202,
      "##isions": 4203,
      "triumph": 4204,
      "fond": 4205,
      "fingers": 4206,
      "52": 4207,
      "##pir": 4208,
      "failed": 4209,
      "edge": 4210,
      "invest": 4211,
      "monsieur": 4212,
      "parl": 4213,
      "lieuten": 4214,
      "dwell": 4215,
      "leading": 4216,
      "golden": 4217,
      "pra": 4218,
      "settled": 4219,
      "fault": 4220,
      "shr": 4221,
      "shoulder": 4222,
      "spain": 4223,
      "succeeded": 4224,
      "butter": 4225,
      "##aked": 4226,
      "employed": 4227,
      "size": 4228,
      "##pelled": 4229,
      "sho": 4230,
      "cart": 4231,
      "##ding": 4232,
      "throughout": 4233,
      "remembered": 4234,
      "rapidly": 4235,
      "explain": 4236,
      "ships": 4237,
      "streets": 4238,
      "constitution": 4239,
      "sorrow": 4240,
      "unto": 4241,
      "pp": 4242,
      "ba": 4243,
      "distur": 4244,
      "archive": 4245,
      "spanish": 4246,
      "yield": 4247,
      "superior": 4248,
      "cool": 4249,
      "##enced": 4250,
      "western": 4251,
      "38": 4252,
      "##bing": 4253,
      "pocket": 4254,
      "ros": 4255,
      "carrying": 4256,
      "que": 4257,
      "aside": 4258,
      "unfortun": 4259,
      "concer": 4260,
      "horr": 4261,
      "##anges": 4262,
      "majesty": 4263,
      "game": 4264,
      "##inder": 4265,
      "finding": 4266,
      "philosoph": 4267,
      "cord": 4268,
      "expressed": 4269,
      "cree": 4270,
      "sunday": 4271,
      "hurried": 4272,
      "development": 4273,
      "eliz": 4274,
      "advance": 4275,
      "naturally": 4276,
      "treas": 4277,
      "intellect": 4278,
      "innoc": 4279,
      "liberty": 4280,
      "##ades": 4281,
      "engine": 4282,
      "freed": 4283,
      "##ulous": 4284,
      "myster": 4285,
      "arrival": 4286,
      "cere": 4287,
      "proport": 4288,
      "division": 4289,
      "surprised": 4290,
      "sacred": 4291,
      "seek": 4292,
      "##isters": 4293,
      "xv": 4294,
      "lose": 4295,
      "unh": 4296,
      "##set": 4297,
      "nobody": 4298,
      "##sec": 4299,
      "permission": 4300,
      "##ension": 4301,
      "sought": 4302,
      "heat": 4303,
      "##etic": 4304,
      "oct": 4305,
      "##astic": 4306,
      "tongue": 4307,
      "exhib": 4308,
      "tor": 4309,
      "central": 4310,
      "union": 4311,
      "writ": 4312,
      "accepted": 4313,
      "severe": 4314,
      "instru": 4315,
      "##with": 4316,
      "##aud": 4317,
      "refused": 4318,
      "relations": 4319,
      "devil": 4320,
      "completely": 4321,
      "pit": 4322,
      "grown": 4323,
      "chamber": 4324,
      "45": 4325,
      "faint": 4326,
      "rad": 4327,
      "tot": 4328,
      "lee": 4329,
      "county": 4330,
      "settle": 4331,
      "richard": 4332,
      "equally": 4333,
      "occurred": 4334,
      "associated": 4335,
      "accompanied": 4336,
      "resist": 4337,
      "pier": 4338,
      "##lo": 4339,
      "physical": 4340,
      "style": 4341,
      "##asing": 4342,
      "ener": 4343,
      "quant": 4344,
      "##race": 4345,
      "ideas": 4346,
      "ara": 4347,
      "forest": 4348,
      "roof": 4349,
      "servants": 4350,
      "shoulders": 4351,
      "secure": 4352,
      "##now": 4353,
      "dign": 4354,
      "eld": 4355,
      "tele": 4356,
      "##asp": 4357,
      "commer": 4358,
      "non": 4359,
      "39": 4360,
      "plant": 4361,
      "inhabitants": 4362,
      "nerv": 4363,
      "##oms": 4364,
      "remarked": 4365,
      "dressed": 4366,
      "retreat": 4367,
      "acquaint": 4368,
      "bi": 4369,
      "smo": 4370,
      "cheese": 4371,
      "season": 4372,
      "mont": 4373,
      "murm": 4374,
      "crossed": 4375,
      "previous": 4376,
      "##ternal": 4377,
      "##vo": 4378,
      "na": 4379,
      "college": 4380,
      "hearts": 4381,
      "dollars": 4382,
      "satisfied": 4383,
      "dare": 4384,
      "##olic": 4385,
      "pounds": 4386,
      "##acc": 4387,
      "sons": 4388,
      "desired": 4389,
      "##burg": 4390,
      "carriage": 4391,
      "harm": 4392,
      "dun": 4393,
      "##road": 4394,
      "negro": 4395,
      "186": 4396,
      "##glas": 4397,
      "islands": 4398,
      "unkn": 4399,
      "sept": 4400,
      "double": 4401,
      "shape": 4402,
      "cells": 4403,
      "disease": 4404,
      "fourth": 4405,
      "concerning": 4406,
      "produce": 4407,
      "waited": 4408,
      "practice": 4409,
      "lieutenant": 4410,
      "contem": 4411,
      "drive": 4412,
      "shel": 4413,
      "##onic": 4414,
      "##ky": 4415,
      "##quis": 4416,
      "##port": 4417,
      "mighty": 4418,
      "181": 4419,
      "##stand": 4420,
      "clim": 4421,
      "hotel": 4422,
      "faces": 4423,
      "wed": 4424,
      "text": 4425,
      "protect": 4426,
      "creature": 4427,
      "##cer": 4428,
      "##iform": 4429,
      "guess": 4430,
      "rode": 4431,
      "tired": 4432,
      "##lished": 4433,
      "noticed": 4434,
      "judgment": 4435,
      "reck": 4436,
      "supply": 4437,
      "birds": 4438,
      "powerful": 4439,
      "grey": 4440,
      "growing": 4441,
      "cousin": 4442,
      "notes": 4443,
      "gain": 4444,
      "joined": 4445,
      "##unte": 4446,
      "emp": 4447,
      "glory": 4448,
      "undert": 4449,
      "polic": 4450,
      "temple": 4451,
      "shadow": 4452,
      "net": 4453,
      "worked": 4454,
      "42": 4455,
      "wil": 4456,
      "ble": 4457,
      "seated": 4458,
      "seized": 4459,
      "solemn": 4460,
      "pair": 4461,
      "figures": 4462,
      "telling": 4463,
      "##ims": 4464,
      "moral": 4465,
      "unknown": 4466,
      "##abeth": 4467,
      "##ague": 4468,
      "##my": 4469,
      "doctr": 4470,
      "##using": 4471,
      "185": 4472,
      "possibly": 4473,
      "series": 4474,
      "minister": 4475,
      "margar": 4476,
      "##ological": 4477,
      "established": 4478,
      "stones": 4479,
      "invol": 4480,
      "saf": 4481,
      "##field": 4482,
      "douglas": 4483,
      "##hold": 4484,
      "gray": 4485,
      "northern": 4486,
      "##abel": 4487,
      "congress": 4488,
      "handsome": 4489,
      "alive": 4490,
      "famous": 4491,
      "suffered": 4492,
      "larger": 4493,
      "whispered": 4494,
      "tar": 4495,
      "lies": 4496,
      "rejo": 4497,
      "##ushing": 4498,
      "wash": 4499,
      "increased": 4500,
      "dolly": 4501,
      "184": 4502,
      "nice": 4503,
      "control": 4504,
      "cattle": 4505,
      "shame": 4506,
      "pity": 4507,
      "suffering": 4508,
      "pard": 4509,
      "##ael": 4510,
      "##pap": 4511,
      "ident": 4512,
      "##orious": 4513,
      "##elt": 4514,
      "##oly": 4515,
      "angry": 4516,
      "183": 4517,
      "inquir": 4518,
      "struggle": 4519,
      "level": 4520,
      "numbers": 4521,
      "june": 4522,
      "represented": 4523,
      "volunte": 4524,
      "##enn": 4525,
      "##ena": 4526,
      "ox": 4527,
      "##asons": 4528,
      "active": 4529,
      "actually": 4530,
      "windows": 4531,
      "interrupt": 4532,
      "ol": 4533,
      "os": 4534,
      "legs": 4535,
      "wag": 4536,
      "tum": 4537,
      "log": 4538,
      "fier": 4539,
      "bearing": 4540,
      "watching": 4541,
      "lack": 4542,
      "swift": 4543,
      "41": 4544,
      "nap": 4545,
      "bron": 4546,
      "touched": 4547,
      "fleet": 4548,
      "title": 4549,
      "instit": 4550,
      "distinguished": 4551,
      "yours": 4552,
      "ack": 4553,
      "beast": 4554,
      "driven": 4555,
      "##cript": 4556,
      "##erves": 4557,
      "enth": 4558,
      "exceed": 4559,
      "margaret": 4560,
      "citiz": 4561,
      "##pet": 4562,
      "elizabeth": 4563,
      "##eg": 4564,
      "##while": 4565,
      "dangerous": 4566,
      "waters": 4567,
      "consequence": 4568,
      "##ential": 4569,
      "##irm": 4570,
      "tis": 4571,
      "##how": 4572,
      "mistress": 4573,
      "##athers": 4574,
      "pg": 4575,
      "provide": 4576,
      "##bar": 4577,
      "empty": 4578,
      "coff": 4579,
      "demanded": 4580,
      "walking": 4581,
      "dust": 4582,
      "mile": 4583,
      "immediate": 4584,
      "reve": 4585,
      "pil": 4586,
      "bob": 4587,
      "twice": 4588,
      "admitted": 4589,
      "needed": 4590,
      "bush": 4591,
      "knock": 4592,
      "rod": 4593,
      "irish": 4594,
      "willing": 4595,
      "rooms": 4596,
      "##enz": 4597,
      "inside": 4598,
      "highest": 4599,
      "printed": 4600,
      "kitch": 4601,
      "##omb": 4602,
      "haven": 4603,
      "gradually": 4604,
      "happen": 4605,
      "hurt": 4606,
      "diam": 4607,
      "##kes": 4608,
      "necessity": 4609,
      "farther": 4610,
      "results": 4611,
      "committee": 4612,
      "everybody": 4613,
      "##off": 4614,
      "lin": 4615,
      "##oll": 4616,
      "region": 4617,
      "police": 4618,
      "##kin": 4619,
      "##ators": 4620,
      "talked": 4621,
      "bon": 4622,
      "commission": 4623,
      "nin": 4624,
      "local": 4625,
      "bodies": 4626,
      "crime": 4627,
      "collection": 4628,
      "fifteen": 4629,
      "fighting": 4630,
      "manif": 4631,
      "moving": 4632,
      "council": 4633,
      "protest": 4634,
      "gathered": 4635,
      "acknow": 4636,
      "##icated": 4637,
      "type": 4638,
      "contrary": 4639,
      "excit": 4640,
      "pill": 4641,
      "revolution": 4642,
      "newspap": 4643,
      "satisfaction": 4644,
      "respons": 4645,
      "coat": 4646,
      "##gu": 4647,
      "assured": 4648,
      "mac": 4649,
      "187": 4650,
      "mult": 4651,
      "smoke": 4652,
      "germany": 4653,
      "explanation": 4654,
      "regret": 4655,
      "bore": 4656,
      "horn": 4657,
      "reform": 4658,
      "centre": 4659,
      "bath": 4660,
      "peas": 4661,
      "smiling": 4662,
      "##onia": 4663,
      "fields": 4664,
      "##racted": 4665,
      "##tering": 4666,
      "##angers": 4667,
      "subjects": 4668,
      "spect": 4669,
      "proph": 4670,
      "##ula": 4671,
      "discovery": 4672,
      "jose": 4673,
      "##igned": 4674,
      "absence": 4675,
      "connected": 4676,
      "defect": 4677,
      "cong": 4678,
      "informed": 4679,
      "aband": 4680,
      "truly": 4681,
      "branch": 4682,
      "prepar": 4683,
      "applied": 4684,
      "##ari": 4685,
      "closely": 4686,
      "listened": 4687,
      "gal": 4688,
      "gods": 4689,
      "##alous": 4690,
      "##──────": 4691,
      "uniform": 4692,
      "wol": 4693,
      "pin": 4694,
      "forces": 4695,
      "taught": 4696,
      "preced": 4697,
      "rome": 4698,
      "keen": 4699,
      "resolved": 4700,
      "44": 4701,
      "played": 4702,
      "connection": 4703,
      "amid": 4704,
      "##cip": 4705,
      "kitchen": 4706,
      "portug": 4707,
      "saved": 4708,
      "task": 4709,
      "rocks": 4710,
      "rush": 4711,
      "composed": 4712,
      "##ips": 4713,
      "##acity": 4714,
      "##iation": 4715,
      "unable": 4716,
      "features": 4717,
      "bridge": 4718,
      "##izing": 4719,
      "appointed": 4720,
      "april": 4721,
      "safety": 4722,
      "thomas": 4723,
      "theory": 4724,
      "##theless": 4725,
      "companions": 4726,
      "##urd": 4727,
      "flour": 4728,
      "nevertheless": 4729,
      "advice": 4730,
      "patient": 4731,
      "ath": 4732,
      "##ulated": 4733,
      "treated": 4734,
      "bul": 4735,
      "##uary": 4736,
      "wasn": 4737,
      "##usi": 4738,
      "##rent": 4739,
      "entrance": 4740,
      "qual": 4741,
      "gloom": 4742,
      "anyone": 4743,
      "purch": 4744,
      "ach": 4745,
      "libr": 4746,
      "##pel": 4747,
      "poem": 4748,
      "easter": 4749,
      "hide": 4750,
      "enemies": 4751,
      "excitement": 4752,
      "##orous": 4753,
      "limited": 4754,
      "reader": 4755,
      "aware": 4756,
      "stories": 4757,
      "counten": 4758,
      "wants": 4759,
      "##ibility": 4760,
      "moses": 4761,
      "haw": 4762,
      "guns": 4763,
      "lun": 4764,
      "accident": 4765,
      "tempt": 4766,
      "surrounded": 4767,
      "tend": 4768,
      "throw": 4769,
      "contrib": 4770,
      "affair": 4771,
      "fold": 4772,
      "hearing": 4773,
      "bid": 4774,
      "craw": 4775,
      "##inent": 4776,
      "sugar": 4777,
      "##uts": 4778,
      "assistance": 4779,
      "hither": 4780,
      "putting": 4781,
      "supper": 4782,
      "follows": 4783,
      "##emark": 4784,
      "nose": 4785,
      "##ov": 4786,
      "consist": 4787,
      "##vere": 4788,
      "trademark": 4789,
      "flat": 4790,
      "careful": 4791,
      "faithful": 4792,
      "using": 4793,
      "india": 4794,
      "fet": 4795,
      "attached": 4796,
      "##neum": 4797,
      "extraord": 4798,
      "flesh": 4799,
      "scott": 4800,
      "##ading": 4801,
      "owner": 4802,
      "terror": 4803,
      "gas": 4804,
      "fox": 4805,
      "despair": 4806,
      "volume": 4807,
      "bord": 4808,
      "jap": 4809,
      "pron": 4810,
      "voyage": 4811,
      "##atives": 4812,
      "ride": 4813,
      "sentence": 4814,
      "laughing": 4815,
      "stern": 4816,
      "##ico": 4817,
      "china": 4818,
      "thanks": 4819,
      "burning": 4820,
      "noise": 4821,
      "##iffer": 4822,
      "##utation": 4823,
      "conver": 4824,
      "literature": 4825,
      "thro": 4826,
      "variety": 4827,
      "##ols": 4828,
      "##night": 4829,
      "nearer": 4830,
      "mix": 4831,
      "spiritual": 4832,
      "ceremon": 4833,
      "##ray": 4834,
      "robert": 4835,
      "persu": 4836,
      "interested": 4837,
      "arth": 4838,
      "brill": 4839,
      "falling": 4840,
      "obst": 4841,
      "calling": 4842,
      "nervous": 4843,
      "articles": 4844,
      "instinct": 4845,
      "freely": 4846,
      "schem": 4847,
      "coach": 4848,
      "sar": 4849,
      "desper": 4850,
      "busy": 4851,
      "enthusi": 4852,
      "proportion": 4853,
      "##rem": 4854,
      "splendid": 4855,
      "##oting": 4856,
      "useful": 4857,
      "vii": 4858,
      "impression": 4859,
      "##orted": 4860,
      "writer": 4861,
      "domin": 4862,
      "vessels": 4863,
      "fellows": 4864,
      "freedom": 4865,
      "gay": 4866,
      "yards": 4867,
      "key": 4868,
      "46": 4869,
      "infant": 4870,
      "principles": 4871,
      "prisoner": 4872,
      "lap": 4873,
      "consideration": 4874,
      "midst": 4875,
      "suit": 4876,
      "prisoners": 4877,
      "practical": 4878,
      "bran": 4879,
      "slave": 4880,
      "shows": 4881,
      "##win": 4882,
      "meat": 4883,
      "smith": 4884,
      "ceased": 4885,
      "permitted": 4886,
      "minds": 4887,
      "japan": 4888,
      "subs": 4889,
      "190": 4890,
      "shock": 4891,
      "ay": 4892,
      "lifted": 4893,
      "teeth": 4894,
      "excited": 4895,
      "population": 4896,
      "display": 4897,
      "eth": 4898,
      "pred": 4899,
      "valu": 4900,
      "##lebr": 4901,
      "flight": 4902,
      "orn": 4903,
      "content": 4904,
      "om": 4905,
      "moments": 4906,
      "mental": 4907,
      "amongst": 4908,
      "dig": 4909,
      "calcul": 4910,
      "oce": 4911,
      "wore": 4912,
      "##irt": 4913,
      "directed": 4914,
      "100": 4915,
      "sympathy": 4916,
      "mercy": 4917,
      "moreover": 4918,
      "ens": 4919,
      "##otes": 4920,
      "investig": 4921,
      "##ker": 4922,
      "fought": 4923,
      "lam": 4924,
      "primitive": 4925,
      "##ops": 4926,
      "worn": 4927,
      "lovely": 4928,
      "indiffer": 4929,
      "por": 4930,
      "deeply": 4931,
      "##ainted": 4932,
      "intention": 4933,
      "stands": 4934,
      "luc": 4935,
      "##onstr": 4936,
      "##illing": 4937,
      "welcome": 4938,
      "proble": 4939,
      "##eter": 4940,
      "escaped": 4941,
      "credit": 4942,
      "amaz": 4943,
      "contact": 4944,
      "obv": 4945,
      "pardon": 4946,
      "disappeared": 4947,
      "couple": 4948,
      "buy": 4949,
      "afric": 4950,
      "prompt": 4951,
      "od": 4952,
      "doesn": 4953,
      "correct": 4954,
      "##plic": 4955,
      "highly": 4956,
      "cott": 4957,
      "##mas": 4958,
      "##ocr": 4959,
      "francis": 4960,
      "##apt": 4961,
      "fever": 4962,
      "earlier": 4963,
      "##ora": 4964,
      "hurry": 4965,
      "yester": 4966,
      "voices": 4967,
      "admin": 4968,
      "obey": 4969,
      "saint": 4970,
      "doors": 4971,
      "brothers": 4972,
      "match": 4973,
      "profession": 4974,
      "mistake": 4975,
      "evident": 4976,
      "##════": 4977,
      "fierce": 4978,
      "##com": 4979,
      "impat": 4980,
      "conclusion": 4981,
      "hoped": 4982,
      "bree": 4983,
      "##aling": 4984,
      "##ique": 4985,
      "withd": 4986,
      "celebr": 4987,
      "recall": 4988,
      "##ubl": 4989,
      "concerned": 4990,
      "roll": 4991,
      "distress": 4992,
      "hyp": 4993,
      "prayer": 4994,
      "imagine": 4995,
      "##iber": 4996,
      "##ox": 4997,
      "join": 4998,
      "immense": 4999,
      "dying": 5000,
      "desert": 5001,
      "statement": 5002,
      "thoroughly": 5003,
      "reven": 5004,
      "copies": 5005,
      "frag": 5006,
      "sie": 5007,
      "hal": 5008,
      "yesterday": 5009,
      "dozen": 5010,
      "knees": 5011,
      "divided": 5012,
      "virginia": 5013,
      "scen": 5014,
      "july": 5015,
      "stead": 5016,
      "kindly": 5017,
      "victory": 5018,
      "nations": 5019,
      "striking": 5020,
      "##chan": 5021,
      "acts": 5022,
      "##ourse": 5023,
      "occasionally": 5024,
      "47": 5025,
      "##inate": 5026,
      "appreci": 5027,
      "collect": 5028,
      "##oused": 5029,
      "##umes": 5030,
      "anybody": 5031,
      "proposed": 5032,
      "comply": 5033,
      "continue": 5034,
      "refund": 5035,
      "parents": 5036,
      "drove": 5037,
      "aust": 5038,
      "pressed": 5039,
      "objects": 5040,
      "partly": 5041,
      "1st": 5042,
      "bos": 5043,
      "approached": 5044,
      "article": 5045,
      "nur": 5046,
      "web": 5047,
      "relation": 5048,
      "causes": 5049,
      "grim": 5050,
      "color": 5051,
      "##ivity": 5052,
      "loose": 5053,
      "doubtless": 5054,
      "plenty": 5055,
      "crim": 5056,
      "flag": 5057,
      "absolutely": 5058,
      "observ": 5059,
      "max": 5060,
      "extraordinary": 5061,
      "caval": 5062,
      "##can": 5063,
      "rum": 5064,
      "instantly": 5065,
      "friendship": 5066,
      "request": 5067,
      "wheel": 5068,
      "intelligence": 5069,
      "joseph": 5070,
      "##uries": 5071,
      "actual": 5072,
      "smooth": 5073,
      "##seless": 5074,
      "##elle": 5075,
      "member": 5076,
      "countenance": 5077,
      "##line": 5078,
      "whence": 5079,
      "avail": 5080,
      "worst": 5081,
      "##ule": 5082,
      "decor": 5083,
      "containing": 5084,
      "gest": 5085,
      "showing": 5086,
      "introduced": 5087,
      "strict": 5088,
      "improve": 5089,
      "surround": 5090,
      "emotion": 5091,
      "crew": 5092,
      "message": 5093,
      "##eem": 5094,
      "cas": 5095,
      "ja": 5096,
      "relie": 5097,
      "60": 5098,
      "arranged": 5099,
      "growth": 5100,
      "soil": 5101,
      "liked": 5102,
      "confess": 5103,
      "gained": 5104,
      "norm": 5105,
      "contempt": 5106,
      "constantly": 5107,
      "##agement": 5108,
      "unhapp": 5109,
      "increase": 5110,
      "##chief": 5111,
      "extend": 5112,
      "##ustomed": 5113,
      "exch": 5114,
      "admit": 5115,
      "imagination": 5116,
      "stairs": 5117,
      "novel": 5118,
      "hell": 5119,
      "countries": 5120,
      "carol": 5121,
      "phrase": 5122,
      "##ales": 5123,
      "natives": 5124,
      "melanch": 5125,
      "fairly": 5126,
      "66": 5127,
      "177": 5128,
      "infer": 5129,
      "successful": 5130,
      "doc": 5131,
      "feb": 5132,
      "##ander": 5133,
      "club": 5134,
      "nay": 5135,
      "hospital": 5136,
      "thousands": 5137,
      "distribution": 5138,
      "worship": 5139,
      "commanded": 5140,
      "reasons": 5141,
      "kings": 5142,
      "sovere": 5143,
      "sacrifice": 5144,
      "sovereign": 5145,
      "ped": 5146,
      "sex": 5147,
      "lect": 5148,
      "ju": 5149,
      "##ids": 5150,
      "##ching": 5151,
      "##ufact": 5152,
      "russian": 5153,
      "christop": 5154,
      "principle": 5155,
      "accordingly": 5156,
      "base": 5157,
      "sooner": 5158,
      "prospect": 5159,
      "manufact": 5160,
      "begun": 5161,
      "average": 5162,
      "isabel": 5163,
      "huge": 5164,
      "changes": 5165,
      "exercise": 5166,
      "jul": 5167,
      "##och": 5168,
      "##key": 5169,
      "hopes": 5170,
      "sem": 5171,
      "priests": 5172,
      "avoid": 5173,
      "clever": 5174,
      "##uits": 5175,
      "indign": 5176,
      "views": 5177,
      "curios": 5178,
      "caut": 5179,
      "ocean": 5180,
      "separate": 5181,
      "sheep": 5182,
      "##aker": 5183,
      "##umber": 5184,
      "hem": 5185,
      "meal": 5186,
      "##inity": 5187,
      "expedition": 5188,
      "182": 5189,
      "wet": 5190,
      "fan": 5191,
      "##isl": 5192,
      "boats": 5193,
      "lux": 5194,
      "cot": 5195,
      "grief": 5196,
      "cream": 5197,
      "buried": 5198,
      "dance": 5199,
      "disci": 5200,
      "older": 5201,
      "guide": 5202,
      "addressed": 5203,
      "struct": 5204,
      "republ": 5205,
      "circle": 5206,
      "48": 5207,
      "returning": 5208,
      "stated": 5209,
      "acquaintance": 5210,
      "patri": 5211,
      "sentiment": 5212,
      "rout": 5213,
      "marsh": 5214,
      "empire": 5215,
      "compelled": 5216,
      "paused": 5217,
      "playing": 5218,
      "defence": 5219,
      "dogs": 5220,
      "bask": 5221,
      "feed": 5222,
      "whenever": 5223,
      "machine": 5224,
      "##umb": 5225,
      "medium": 5226,
      "##mos": 5227,
      "##pping": 5228,
      "convin": 5229,
      "##standing": 5230,
      "feder": 5231,
      "##leep": 5232,
      "wholly": 5233,
      "awa": 5234,
      "dull": 5235,
      "##erson": 5236,
      "shouted": 5237,
      "##rated": 5238,
      "plat": 5239,
      "guil": 5240,
      "##ointment": 5241,
      "capable": 5242,
      "inquired": 5243,
      "drunk": 5244,
      "duties": 5245,
      "library": 5246,
      "depth": 5247,
      "wisdom": 5248,
      "grant": 5249,
      "##iable": 5250,
      "gle": 5251,
      "ray": 5252,
      "sed": 5253,
      "anal": 5254,
      "alex": 5255,
      "corps": 5256,
      "rendered": 5257,
      "prevail": 5258,
      "nodd": 5259,
      "remind": 5260,
      "effects": 5261,
      "##very": 5262,
      "arose": 5263,
      "parties": 5264,
      "hole": 5265,
      "viii": 5266,
      "asleep": 5267,
      "blessed": 5268,
      "entertain": 5269,
      "gla": 5270,
      "##iot": 5271,
      "negle": 5272,
      "skill": 5273,
      "visited": 5274,
      "cf": 5275,
      "behold": 5276,
      "map": 5277,
      "exha": 5278,
      "subsequ": 5279,
      "community": 5280,
      "pist": 5281,
      "##kins": 5282,
      "hidden": 5283,
      "wicked": 5284,
      "ahead": 5285,
      "delicate": 5286,
      "##ita": 5287,
      "abund": 5288,
      "university": 5289,
      "##ax": 5290,
      "pulled": 5291,
      "kindness": 5292,
      "legisl": 5293,
      "flying": 5294,
      "staff": 5295,
      "contained": 5296,
      "tale": 5297,
      "surre": 5298,
      "##de": 5299,
      "unex": 5300,
      "final": 5301,
      "wound": 5302,
      "##onscious": 5303,
      "knife": 5304,
      "precious": 5305,
      "destroyed": 5306,
      "##othing": 5307,
      "##osen": 5308,
      "marie": 5309,
      "critic": 5310,
      "nurse": 5311,
      "##oco": 5312,
      "ended": 5313,
      "store": 5314,
      "asce": 5315,
      "cher": 5316,
      "confusion": 5317,
      "recoll": 5318,
      "chin": 5319,
      "trial": 5320,
      "bringing": 5321,
      "gently": 5322,
      "dreams": 5323,
      "details": 5324,
      "souls": 5325,
      "domain": 5326,
      "cultiv": 5327,
      "##ilities": 5328,
      "quarters": 5329,
      "odd": 5330,
      "valuable": 5331,
      "surv": 5332,
      "##ational": 5333,
      "commander": 5334,
      "sprang": 5335,
      "##rael": 5336,
      "##icks": 5337,
      "devoted": 5338,
      "dreadful": 5339,
      "pages": 5340,
      "genius": 5341,
      "contrast": 5342,
      "##ober": 5343,
      "source": 5344,
      "weap": 5345,
      "magnific": 5346,
      "##laf": 5347,
      "branches": 5348,
      "49": 5349,
      "block": 5350,
      "hang": 5351,
      "affected": 5352,
      "anger": 5353,
      "extended": 5354,
      "understanding": 5355,
      "slaves": 5356,
      "greet": 5357,
      "poison": 5358,
      "link": 5359,
      "chosen": 5360,
      "singular": 5361,
      "arthur": 5362,
      "aim": 5363,
      "sell": 5364,
      "##illy": 5365,
      "inches": 5366,
      "##ldom": 5367,
      "hind": 5368,
      "jones": 5369,
      "ages": 5370,
      "chiefly": 5371,
      "plans": 5372,
      "indul": 5373,
      "movements": 5374,
      "october": 5375,
      "doctrine": 5376,
      "fund": 5377,
      "handed": 5378,
      "interrupted": 5379,
      "##inated": 5380,
      "choose": 5381,
      "##ician": 5382,
      "veget": 5383,
      "committed": 5384,
      "britain": 5385,
      "rear": 5386,
      "quantity": 5387,
      "##ych": 5388,
      "becoming": 5389,
      "amuse": 5390,
      "ends": 5391,
      "mystery": 5392,
      "51": 5393,
      "departure": 5394,
      "##don": 5395,
      "reward": 5396,
      "mechan": 5397,
      "extremely": 5398,
      "dawn": 5399,
      "pressure": 5400,
      "accustomed": 5401,
      "recom": 5402,
      "baby": 5403,
      "env": 5404,
      "sufficiently": 5405,
      "rou": 5406,
      "victor": 5407,
      "clergy": 5408,
      "ral": 5409,
      "throne": 5410,
      "israel": 5411,
      "lion": 5412,
      "##atively": 5413,
      "scotland": 5414,
      "prosper": 5415,
      "meanwhile": 5416,
      "protection": 5417,
      "unus": 5418,
      "##ram": 5419,
      "##ault": 5420,
      "##bted": 5421,
      "hay": 5422,
      "##ss": 5423,
      "##aph": 5424,
      "interests": 5425,
      "exception": 5426,
      "8vo": 5427,
      "foolish": 5428,
      "180": 5429,
      "september": 5430,
      "yard": 5431,
      "harry": 5432,
      "excuse": 5433,
      "178": 5434,
      "mour": 5435,
      "lover": 5436,
      "blank": 5437,
      "clouds": 5438,
      "stuff": 5439,
      "choice": 5440,
      "##acles": 5441,
      "dur": 5442,
      "silk": 5443,
      "rights": 5444,
      "solid": 5445,
      "attract": 5446,
      "uncom": 5447,
      "dor": 5448,
      "conven": 5449,
      "slightly": 5450,
      "##icip": 5451,
      "##ours": 5452,
      "strike": 5453,
      "scient": 5454,
      "typ": 5455,
      "##iture": 5456,
      "preach": 5457,
      "towns": 5458,
      "bruce": 5459,
      "##rees": 5460,
      "performed": 5461,
      "columb": 5462,
      "mos": 5463,
      "##ana": 5464,
      "derived": 5465,
      "##bre": 5466,
      "attended": 5467,
      "curiosity": 5468,
      "rig": 5469,
      "aspect": 5470,
      "trace": 5471,
      "recon": 5472,
      "seldom": 5473,
      "flower": 5474,
      "difficulties": 5475,
      "current": 5476,
      "secretary": 5477,
      "fac": 5478,
      "garr": 5479,
      "thai": 5480,
      "anxiety": 5481,
      "asking": 5482,
      "frightened": 5483,
      "vision": 5484,
      "##ture": 5485,
      "artist": 5486,
      "unconscious": 5487,
      "shelley": 5488,
      "maintain": 5489,
      "incident": 5490,
      "wishes": 5491,
      "conscience": 5492,
      "armed": 5493,
      "surrender": 5494,
      "everywhere": 5495,
      "signific": 5496,
      "reign": 5497,
      "jeff": 5498,
      "market": 5499,
      "##uing": 5500,
      "picked": 5501,
      "##ulse": 5502,
      "jealous": 5503,
      "attitude": 5504,
      "##uther": 5505,
      "##estic": 5506,
      "rag": 5507,
      "##icted": 5508,
      "visible": 5509,
      "signs": 5510,
      "throat": 5511,
      "hate": 5512,
      "charl": 5513,
      "pneum": 5514,
      "##ads": 5515,
      "ax": 5516,
      "destruction": 5517,
      "inclined": 5518,
      "rushed": 5519,
      "##bon": 5520,
      "clay": 5521,
      "##ourable": 5522,
      "federal": 5523,
      "##itate": 5524,
      "emer": 5525,
      "smaller": 5526,
      "eggs": 5527,
      "admiration": 5528,
      "families": 5529,
      "grate": 5530,
      "##eping": 5531,
      "mounted": 5532,
      "inch": 5533,
      "rele": 5534,
      "created": 5535,
      "thrust": 5536,
      "bark": 5537,
      "heir": 5538,
      "jum": 5539,
      "anne": 5540,
      "stepped": 5541,
      "angel": 5542,
      "##conom": 5543,
      "thinks": 5544,
      "stars": 5545,
      "arab": 5546,
      "55": 5547,
      "finger": 5548,
      "recognized": 5549,
      "cities": 5550,
      "sounds": 5551,
      "trif": 5552,
      "mysterious": 5553,
      "contents": 5554,
      "baron": 5555,
      "au": 5556,
      "ease": 5557,
      "febru": 5558,
      "##atched": 5559,
      "##gon": 5560,
      "##ago": 5561,
      "subm": 5562,
      "80": 5563,
      "february": 5564,
      "thunder": 5565,
      "desir": 5566,
      "owing": 5567,
      "eastern": 5568,
      "##fulness": 5569,
      "accomplished": 5570,
      "female": 5571,
      "200": 5572,
      "econom": 5573,
      "##gan": 5574,
      "##stairs": 5575,
      "innocent": 5576,
      "arist": 5577,
      "unfortunate": 5578,
      "coo": 5579,
      "##aces": 5580,
      "htt": 5581,
      "condem": 5582,
      "savage": 5583,
      "ward": 5584,
      "##itory": 5585,
      "theat": 5586,
      "quality": 5587,
      "tribes": 5588,
      "measures": 5589,
      "rules": 5590,
      "##mend": 5591,
      "ire": 5592,
      "additional": 5593,
      "67": 5594,
      "methods": 5595,
      "tu": 5596,
      "job": 5597,
      "republic": 5598,
      "mes": 5599,
      "definite": 5600,
      "convey": 5601,
      "obed": 5602,
      "tables": 5603,
      "##char": 5604,
      "latin": 5605,
      "intellectual": 5606,
      "banks": 5607,
      "neighbor": 5608,
      "remaining": 5609,
      "classes": 5610,
      "michael": 5611,
      "calls": 5612,
      "##pless": 5613,
      "row": 5614,
      "179": 5615,
      "tort": 5616,
      "clo": 5617,
      "distributed": 5618,
      "chest": 5619,
      "purposes": 5620,
      "encoun": 5621,
      "adopted": 5622,
      "policy": 5623,
      "cig": 5624,
      "freder": 5625,
      "cure": 5626,
      "reference": 5627,
      "journal": 5628,
      "interview": 5629,
      "##ienced": 5630,
      "dignity": 5631,
      "continent": 5632,
      "##alt": 5633,
      "reality": 5634,
      "comfortable": 5635,
      "fled": 5636,
      "violent": 5637,
      "spo": 5638,
      "check": 5639,
      "cliff": 5640,
      "guilty": 5641,
      "ard": 5642,
      "friendly": 5643,
      "tight": 5644,
      "solic": 5645,
      "##hen": 5646,
      "weary": 5647,
      "feast": 5648,
      "operation": 5649,
      "##dia": 5650,
      "yo": 5651,
      "##ounce": 5652,
      "recent": 5653,
      "fifth": 5654,
      "ghost": 5655,
      "virtue": 5656,
      "gang": 5657,
      "53": 5658,
      "pushed": 5659,
      "##rie": 5660,
      "edward": 5661,
      "##aign": 5662,
      "canada": 5663,
      "perman": 5664,
      "##oqu": 5665,
      "##arse": 5666,
      "delay": 5667,
      "absor": 5668,
      "bones": 5669,
      "plants": 5670,
      "christophe": 5671,
      "pause": 5672,
      "bew": 5673,
      "##acon": 5674,
      "##ww": 5675,
      "eagerly": 5676,
      "##isp": 5677,
      "household": 5678,
      "##throp": 5679,
      "nove": 5680,
      "january": 5681,
      "volunteers": 5682,
      "coffee": 5683,
      "mic": 5684,
      "www": 5685,
      "ralph": 5686,
      "##geon": 5687,
      "remove": 5688,
      "lit": 5689,
      "sink": 5690,
      "perceived": 5691,
      "instances": 5692,
      "career": 5693,
      "##aming": 5694,
      "##ros": 5695,
      "somebody": 5696,
      "##iel": 5697,
      "tells": 5698,
      "fil": 5699,
      "##oos": 5700,
      "softly": 5701,
      "brilliant": 5702,
      "##inous": 5703,
      "##ulted": 5704,
      "separated": 5705,
      "parliam": 5706,
      "energy": 5707,
      "##cies": 5708,
      "warri": 5709,
      "##ida": 5710,
      "painted": 5711,
      "les": 5712,
      "vac": 5713,
      "##dy": 5714,
      "somewhere": 5715,
      "misery": 5716,
      "gos": 5717,
      "mex": 5718,
      "sixty": 5719,
      "praise": 5720,
      "##inging": 5721,
      "gro": 5722,
      "tent": 5723,
      "asc": 5724,
      "rif": 5725,
      "##aks": 5726,
      "scattered": 5727,
      "bible": 5728,
      "authorities": 5729,
      "pup": 5730,
      "lighted": 5731,
      "needs": 5732,
      "reaching": 5733,
      "services": 5734,
      "pour": 5735,
      "singing": 5736,
      "preserved": 5737,
      "##lessly": 5738,
      "dil": 5739,
      "sport": 5740,
      "##car": 5741,
      "isl": 5742,
      "italian": 5743,
      "raise": 5744,
      "kinds": 5745,
      "gif": 5746,
      "enl": 5747,
      "57": 5748,
      "gran": 5749,
      "##cest": 5750,
      "convention": 5751,
      "instrument": 5752,
      "bride": 5753,
      "billy": 5754,
      "site": 5755,
      "ireland": 5756,
      "department": 5757,
      "apparent": 5758,
      "##ibly": 5759,
      "counsel": 5760,
      "citizens": 5761,
      "##zy": 5762,
      "manners": 5763,
      "probable": 5764,
      "developed": 5765,
      "furnished": 5766,
      "travell": 5767,
      "setting": 5768,
      "approaching": 5769,
      "##cher": 5770,
      "68": 5771,
      "sang": 5772,
      "##teenth": 5773,
      "scri": 5774,
      "forgive": 5775,
      "pipe": 5776,
      "##ints": 5777,
      "propri": 5778,
      "assumed": 5779,
      "pad": 5780,
      "tradition": 5781,
      "goods": 5782,
      "observe": 5783,
      "attrib": 5784,
      "supreme": 5785,
      "bought": 5786,
      "belonging": 5787,
      "inse": 5788,
      "##cia": 5789,
      "younger": 5790,
      "profound": 5791,
      "##ares": 5792,
      "treaty": 5793,
      "##vert": 5794,
      "##urity": 5795,
      "64": 5796,
      "range": 5797,
      "##oh": 5798,
      "restr": 5799,
      "56": 5800,
      "cheeks": 5801,
      "miserable": 5802,
      "susan": 5803,
      "##work": 5804,
      "##aining": 5805,
      "spl": 5806,
      "##phere": 5807,
      "included": 5808,
      "fix": 5809,
      "nerves": 5810,
      "harr": 5811,
      "portra": 5812,
      "merchant": 5813,
      "intim": 5814,
      "weakness": 5815,
      "agric": 5816,
      "schools": 5817,
      "utterly": 5818,
      "##rous": 5819,
      "altern": 5820,
      "frequent": 5821,
      "thence": 5822,
      "ded": 5823,
      "inner": 5824,
      "appeal": 5825,
      "breaking": 5826,
      "helped": 5827,
      "harmon": 5828,
      "##lict": 5829,
      "##pended": 5830,
      "risk": 5831,
      "##tebr": 5832,
      "spend": 5833,
      "batter": 5834,
      "ming": 5835,
      "enorm": 5836,
      "liqu": 5837,
      "swept": 5838,
      "learning": 5839,
      "examination": 5840,
      "folk": 5841,
      "duch": 5842,
      "##kind": 5843,
      "##ington": 5844,
      "careless": 5845,
      "scheme": 5846,
      "introduction": 5847,
      "horror": 5848,
      "##ban": 5849,
      "delivered": 5850,
      "##oles": 5851,
      "##─┼────────": 5852,
      "##room": 5853,
      "constru": 5854,
      "strongly": 5855,
      "##inction": 5856,
      "loyal": 5857,
      "schol": 5858,
      "unhappy": 5859,
      "retired": 5860,
      "ignorant": 5861,
      "mate": 5862,
      "##ums": 5863,
      "anywhere": 5864,
      "provisions": 5865,
      "parliament": 5866,
      "lest": 5867,
      "notwith": 5868,
      "medic": 5869,
      "notwithstanding": 5870,
      "acknowled": 5871,
      "breeze": 5872,
      "##ration": 5873,
      "confer": 5874,
      "oppress": 5875,
      "reported": 5876,
      "roads": 5877,
      "59": 5878,
      "absurd": 5879,
      "catholic": 5880,
      "##oking": 5881,
      "54": 5882,
      "##ria": 5883,
      "december": 5884,
      "##ga": 5885,
      "##itious": 5886,
      "privile": 5887,
      "manifest": 5888,
      "58": 5889,
      "shortly": 5890,
      "properly": 5891,
      "obsc": 5892,
      "##aine": 5893,
      "xxx": 5894,
      "positive": 5895,
      "abb": 5896,
      "slept": 5897,
      "warrant": 5898,
      "laughter": 5899,
      "lock": 5900,
      "mixed": 5901,
      "forbid": 5902,
      "##za": 5903,
      "writers": 5904,
      "##ashing": 5905,
      "characteristic": 5906,
      "fro": 5907,
      "transport": 5908,
      "intense": 5909,
      "paint": 5910,
      "##oring": 5911,
      "ech": 5912,
      "cru": 5913,
      "wondered": 5914,
      "sult": 5915,
      "script": 5916,
      "lawy": 5917,
      "suspicion": 5918,
      "borne": 5919,
      "christmas": 5920,
      "argument": 5921,
      "convinced": 5922,
      "granted": 5923,
      "universal": 5924,
      "##ha": 5925,
      "##oul": 5926,
      "characters": 5927,
      "frederick": 5928,
      "aven": 5929,
      "embry": 5930,
      "grie": 5931,
      "camilla": 5932,
      "sket": 5933,
      "summ": 5934,
      "punishment": 5935,
      "spark": 5936,
      "buildings": 5937,
      "consciousness": 5938,
      "hitherto": 5939,
      "widow": 5940,
      "##omp": 5941,
      "tower": 5942,
      "pope": 5943,
      "tempor": 5944,
      "fatal": 5945,
      "dw": 5946,
      "comr": 5947,
      "hunting": 5948,
      "##rand": 5949,
      "delighted": 5950,
      "buck": 5951,
      "summon": 5952,
      "glanced": 5953,
      "habits": 5954,
      "wra": 5955,
      "##bury": 5956,
      "precise": 5957,
      "commenced": 5958,
      "uttered": 5959,
      "campaign": 5960,
      "november": 5961,
      "oil": 5962,
      "cottage": 5963,
      "##rence": 5964,
      "stiff": 5965,
      "charming": 5966,
      "replace": 5967,
      "nurs": 5968,
      "useless": 5969,
      "agricult": 5970,
      "##illery": 5971,
      "guests": 5972,
      "unb": 5973,
      "nodded": 5974,
      "element": 5975,
      "horri": 5976,
      "repro": 5977,
      "##ulate": 5978,
      "marks": 5979,
      "##stone": 5980,
      "reduced": 5981,
      "jun": 5982,
      "lamp": 5983,
      "distributing": 5984,
      "leader": 5985,
      "listening": 5986,
      "fulf": 5987,
      "ske": 5988,
      "##icable": 5989,
      "lone": 5990,
      "##eenth": 5991,
      "##lyn": 5992,
      "acquainted": 5993,
      "majority": 5994,
      "observation": 5995,
      "recovered": 5996,
      "cape": 5997,
      "##edy": 5998,
      "barbar": 5999,
      "elder": 6000,
      "feared": 6001,
      "##fl": 6002,
      "mankind": 6003,
      "attacked": 6004,
      "urged": 6005,
      "unexpected": 6006,
      "##ifying": 6007,
      "interior": 6008,
      "elsewhere": 6009,
      "nerve": 6010,
      "managed": 6011,
      "uncertain": 6012,
      "dared": 6013,
      "expense": 6014,
      "##itz": 6015,
      "waste": 6016,
      "suggestion": 6017,
      "pig": 6018,
      "wretched": 6019,
      "##iece": 6020,
      "enjoyed": 6021,
      "italy": 6022,
      "unm": 6023,
      "awful": 6024,
      "inher": 6025,
      "ecc": 6026,
      "##eral": 6027,
      "deliber": 6028,
      "organs": 6029,
      "plainly": 6030,
      "spare": 6031,
      "european": 6032,
      "62": 6033,
      "mc": 6034,
      "hut": 6035,
      "##ghter": 6036,
      "##xed": 6037,
      "noted": 6038,
      "##actory": 6039,
      "penet": 6040,
      "independent": 6041,
      "##father": 6042,
      "utmost": 6043,
      "specul": 6044,
      "swell": 6045,
      "examined": 6046,
      "mud": 6047,
      "review": 6048,
      "accur": 6049,
      "attempted": 6050,
      "belonged": 6051,
      "stret": 6052,
      "vague": 6053,
      "depos": 6054,
      "formerly": 6055,
      "ridic": 6056,
      "ancest": 6057,
      "compared": 6058,
      "glorious": 6059,
      "structure": 6060,
      "forehead": 6061,
      "detect": 6062,
      "ruin": 6063,
      "announced": 6064,
      "concluded": 6065,
      "remarks": 6066,
      "consent": 6067,
      "tube": 6068,
      "##aints": 6069,
      "symb": 6070,
      "lights": 6071,
      "stup": 6072,
      "compre": 6073,
      "hild": 6074,
      "marched": 6075,
      "poetry": 6076,
      "experienced": 6077,
      "blame": 6078,
      "trembling": 6079,
      "##enses": 6080,
      "hundreds": 6081,
      "imperial": 6082,
      "##here": 6083,
      "gaze": 6084,
      "contempl": 6085,
      "##ctive": 6086,
      "situated": 6087,
      "directions": 6088,
      "problem": 6089,
      "cavalry": 6090,
      "cotton": 6091,
      "rage": 6092,
      "excess": 6093,
      "##rid": 6094,
      "alike": 6095,
      "##agger": 6096,
      "disposed": 6097,
      "##board": 6098,
      "germans": 6099,
      "ix": 6100,
      "apply": 6101,
      "eternal": 6102,
      "rivers": 6103,
      "pound": 6104,
      "rude": 6105,
      "kissed": 6106,
      "##enger": 6107,
      "merc": 6108,
      "osw": 6109,
      "hadn": 6110,
      "anticip": 6111,
      "opinions": 6112,
      "##ements": 6113,
      "flood": 6114,
      "jews": 6115,
      "90": 6116,
      "eating": 6117,
      "nut": 6118,
      "##itud": 6119,
      "hollow": 6120,
      "trip": 6121,
      "bart": 6122,
      "prepare": 6123,
      "alarm": 6124,
      "dischar": 6125,
      "murmured": 6126,
      "somehow": 6127,
      "readily": 6128,
      "creek": 6129,
      "painful": 6130,
      "brand": 6131,
      "mild": 6132,
      "afterward": 6133,
      "entering": 6134,
      "domestic": 6135,
      "increasing": 6136,
      "##ta": 6137,
      "brow": 6138,
      "boil": 6139,
      "##uge": 6140,
      "prud": 6141,
      "philosophy": 6142,
      "africa": 6143,
      "cave": 6144,
      "diamond": 6145,
      "contains": 6146,
      "defend": 6147,
      "related": 6148,
      "##ki": 6149,
      "pow": 6150,
      "harding": 6151,
      "antiqu": 6152,
      "sant": 6153,
      "##zing": 6154,
      "creatures": 6155,
      "##fall": 6156,
      "sha": 6157,
      "exposed": 6158,
      "##uine": 6159,
      "male": 6160,
      "wings": 6161,
      "anch": 6162,
      "perpet": 6163,
      "sinc": 6164,
      "##ropri": 6165,
      "formation": 6166,
      "counter": 6167,
      "irr": 6168,
      "##pse": 6169,
      "heath": 6170,
      "eleven": 6171,
      "fest": 6172,
      "frame": 6173,
      "abrupt": 6174,
      "rolled": 6175,
      "artillery": 6176,
      "beard": 6177,
      "elements": 6178,
      "demonstr": 6179,
      "shelter": 6180,
      "##ias": 6181,
      "##lers": 6182,
      "historical": 6183,
      "scientific": 6184,
      "##urance": 6185,
      "hastily": 6186,
      "gallant": 6187,
      "rab": 6188,
      "troubles": 6189,
      "##inc": 6190,
      "gil": 6191,
      "##ais": 6192,
      "65": 6193,
      "##mes": 6194,
      "##ipping": 6195,
      "loving": 6196,
      "steep": 6197,
      "dir": 6198,
      "ascertain": 6199,
      "ram": 6200,
      "##pleas": 6201,
      "referred": 6202,
      "maybe": 6203,
      "##ken": 6204,
      "mah": 6205,
      "parish": 6206,
      "ideal": 6207,
      "murd": 6208,
      "kent": 6209,
      "rope": 6210,
      "moder": 6211,
      "magnificent": 6212,
      "##ino": 6213,
      "riding": 6214,
      "uneas": 6215,
      "##rian": 6216,
      "falls": 6217,
      "generous": 6218,
      "refr": 6219,
      "muscles": 6220,
      "experiment": 6221,
      "bowed": 6222,
      "thorn": 6223,
      "consol": 6224,
      "disposition": 6225,
      "ned": 6226,
      "##owned": 6227,
      "horiz": 6228,
      "arrangement": 6229,
      "desperate": 6230,
      "alas": 6231,
      "unl": 6232,
      "emph": 6233,
      "posted": 6234,
      "reports": 6235,
      "jane": 6236,
      "shed": 6237,
      "##terior": 6238,
      "contract": 6239,
      "##sworth": 6240,
      "christians": 6241,
      "sank": 6242,
      "railway": 6243,
      "300": 6244,
      "70": 6245,
      "landed": 6246,
      "mood": 6247,
      "ebooks": 6248,
      "ted": 6249,
      "specim": 6250,
      "editor": 6251,
      "industry": 6252,
      "maria": 6253,
      "infinite": 6254,
      "secured": 6255,
      "seriously": 6256,
      "##ients": 6257,
      "unp": 6258,
      "beloved": 6259,
      "nom": 6260,
      "##pent": 6261,
      "##pher": 6262,
      "gift": 6263,
      "rib": 6264,
      "refuse": 6265,
      "straw": 6266,
      "provin": 6267,
      "visitor": 6268,
      "##ili": 6269,
      "napole": 6270,
      "administr": 6271,
      "oswald": 6272,
      "departed": 6273,
      "essential": 6274,
      "lan": 6275,
      "##cribed": 6276,
      "papa": 6277,
      "practically": 6278,
      "temperature": 6279,
      "##asped": 6280,
      "guards": 6281,
      "consequently": 6282,
      "serge": 6283,
      "arts": 6284,
      "61": 6285,
      "scorn": 6286,
      "wooden": 6287,
      "violence": 6288,
      "gazed": 6289,
      "patience": 6290,
      "##ipt": 6291,
      "atmos": 6292,
      "segment": 6293,
      "helen": 6294,
      "possibility": 6295,
      "lev": 6296,
      "total": 6297,
      "atmosphere": 6298,
      "steady": 6299,
      "##held": 6300,
      "estate": 6301,
      "receiving": 6302,
      "standard": 6303,
      "##osure": 6304,
      "louise": 6305,
      "lately": 6306,
      "christianity": 6307,
      "##pper": 6308,
      "reputation": 6309,
      "scenes": 6310,
      "paying": 6311,
      "legal": 6312,
      "crowded": 6313,
      "benefit": 6314,
      "withdra": 6315,
      "sees": 6316,
      "helpless": 6317,
      "superst": 6318,
      "mistaken": 6319,
      "##ica": 6320,
      "comment": 6321,
      "fairy": 6322,
      "supplied": 6323,
      "melancholy": 6324,
      "descended": 6325,
      "sust": 6326,
      "likewise": 6327,
      "collected": 6328,
      "faced": 6329,
      "overt": 6330,
      "centuries": 6331,
      "ignorance": 6332,
      "recently": 6333,
      "commercial": 6334,
      "cigar": 6335,
      "##sey": 6336,
      "pglaf": 6337,
      "betty": 6338,
      "von": 6339,
      "chape": 6340,
      "##rived": 6341,
      "compet": 6342,
      "outer": 6343,
      "descend": 6344,
      "##zed": 6345,
      "heb": 6346,
      "occasions": 6347,
      "##ston": 6348,
      "##abled": 6349,
      "##ucted": 6350,
      "ster": 6351,
      "stretched": 6352,
      "spani": 6353,
      "connect": 6354,
      "75": 6355,
      "monarch": 6356,
      "waves": 6357,
      "##more": 6358,
      "##net": 6359,
      "beach": 6360,
      "confined": 6361,
      "drift": 6362,
      "garrison": 6363,
      "vul": 6364,
      "##jud": 6365,
      "##entions": 6366,
      "sisters": 6367,
      "glo": 6368,
      "humble": 6369,
      "americans": 6370,
      "celebrated": 6371,
      "shining": 6372,
      "largely": 6373,
      "humanity": 6374,
      "battal": 6375,
      "abroad": 6376,
      "contro": 6377,
      "newspaper": 6378,
      "##fty": 6379,
      "puzz": 6380,
      "invited": 6381,
      "##gs": 6382,
      "marquis": 6383,
      "resumed": 6384,
      "compass": 6385,
      "##bit": 6386,
      "##amped": 6387,
      "abst": 6388,
      "unusual": 6389,
      "acting": 6390,
      "memor": 6391,
      "archit": 6392,
      "apartment": 6393,
      "##pers": 6394,
      "flung": 6395,
      "issued": 6396,
      "mu": 6397,
      "nights": 6398,
      "lydia": 6399,
      "execution": 6400,
      "##hire": 6401,
      "hers": 6402,
      "appropri": 6403,
      "burned": 6404,
      "shru": 6405,
      "martin": 6406,
      "muse": 6407,
      "distribute": 6408,
      "##blast": 6409,
      "column": 6410,
      "ling": 6411,
      "##engers": 6412,
      "craft": 6413,
      "permit": 6414,
      "pursued": 6415,
      "sailed": 6416,
      "intend": 6417,
      "napoleon": 6418,
      "pink": 6419,
      "aloud": 6420,
      "alter": 6421,
      "concealed": 6422,
      "##usions": 6423,
      "grounds": 6424,
      "farmer": 6425,
      "##inations": 6426,
      "chann": 6427,
      "flame": 6428,
      "warning": 6429,
      "##────────────────": 6430,
      "communic": 6431,
      "##rim": 6432,
      "lege": 6433,
      "sleeping": 6434,
      "groups": 6435,
      "russia": 6436,
      "fame": 6437,
      "gets": 6438,
      "scream": 6439,
      "renew": 6440,
      "architect": 6441,
      "resc": 6442,
      "forming": 6443,
      "phot": 6444,
      "gates": 6445,
      "bade": 6446,
      "pac": 6447,
      "##ura": 6448,
      "print": 6449,
      "examples": 6450,
      "stared": 6451,
      "arn": 6452,
      "guest": 6453,
      "##idents": 6454,
      "lung": 6455,
      "mam": 6456,
      "asham": 6457,
      "admiral": 6458,
      "##house": 6459,
      "##liness": 6460,
      "agent": 6461,
      "masses": 6462,
      "##rate": 6463,
      "##wick": 6464,
      "tied": 6465,
      "ult": 6466,
      "neph": 6467,
      "production": 6468,
      "steel": 6469,
      "inex": 6470,
      "##vin": 6471,
      "scand": 6472,
      "necessarily": 6473,
      "enormous": 6474,
      "ff": 6475,
      "signal": 6476,
      "hungry": 6477,
      "wing": 6478,
      "acted": 6479,
      "insp": 6480,
      "grandfather": 6481,
      "ashamed": 6482,
      "##oop": 6483,
      "brid": 6484,
      "acquired": 6485,
      "lonely": 6486,
      "fired": 6487,
      "extrem": 6488,
      "troubled": 6489,
      "tribe": 6490,
      "achie": 6491,
      "glim": 6492,
      "nearest": 6493,
      "esteem": 6494,
      "discussion": 6495,
      "issue": 6496,
      "masters": 6497,
      "##yth": 6498,
      "shew": 6499,
      "pear": 6500,
      "astonishment": 6501,
      "gratitude": 6502,
      "rent": 6503,
      "fel": 6504,
      "operations": 6505,
      "firmly": 6506,
      "chain": 6507,
      "##usive": 6508,
      "finds": 6509,
      "elev": 6510,
      "winds": 6511,
      "insisted": 6512,
      "vertebr": 6513,
      "delightful": 6514,
      "qualities": 6515,
      "##idity": 6516,
      "curtain": 6517,
      "japanese": 6518,
      "flash": 6519,
      "tour": 6520,
      "tiss": 6521,
      "million": 6522,
      "som": 6523,
      "##atus": 6524,
      "##cle": 6525,
      "revel": 6526,
      "begged": 6527,
      "cheek": 6528,
      "ruth": 6529,
      "merry": 6530,
      "completed": 6531,
      "hart": 6532,
      "whist": 6533,
      "circumstance": 6534,
      "150": 6535,
      "enterpr": 6536,
      "gor": 6537,
      "kh": 6538,
      "wherever": 6539,
      "oath": 6540,
      "zeal": 6541,
      "bost": 6542,
      "dancing": 6543,
      "##igg": 6544,
      "canal": 6545,
      "rust": 6546,
      "track": 6547,
      "decision": 6548,
      "based": 6549,
      "##iveness": 6550,
      "steamer": 6551,
      "cel": 6552,
      "luther": 6553,
      "##tle": 6554,
      "##leton": 6555,
      "lucy": 6556,
      "##of": 6557,
      "province": 6558,
      "error": 6559,
      "resistance": 6560,
      "##oubted": 6561,
      "shade": 6562,
      "##rier": 6563,
      "charm": 6564,
      "hanging": 6565,
      "image": 6566,
      "append": 6567,
      "stronger": 6568,
      "##irmed": 6569,
      "consult": 6570,
      "slipped": 6571,
      "bronch": 6572,
      "stout": 6573,
      "coal": 6574,
      "application": 6575,
      "drinking": 6576,
      "toler": 6577,
      "sending": 6578,
      "profit": 6579,
      "audience": 6580,
      "69": 6581,
      "tick": 6582,
      "##aping": 6583,
      "failure": 6584,
      "sultan": 6585,
      "##iring": 6586,
      "conducted": 6587,
      "tin": 6588,
      "##ogue": 6589,
      "distinction": 6590,
      "fathers": 6591,
      "assert": 6592,
      "##cht": 6593,
      "exert": 6594,
      "scra": 6595,
      "heavily": 6596,
      "bottle": 6597,
      "boston": 6598,
      "clothing": 6599,
      "cardinal": 6600,
      "##inence": 6601,
      "##olk": 6602,
      "existed": 6603,
      "bosom": 6604,
      "resour": 6605,
      "undoubted": 6606,
      "landl": 6607,
      "prophet": 6608,
      "sincere": 6609,
      "xiv": 6610,
      "sunsh": 6611,
      "communication": 6612,
      "substance": 6613,
      "neighbourhood": 6614,
      "##era": 6615,
      "seeking": 6616,
      "strangers": 6617,
      "conflict": 6618,
      "indicated": 6619,
      "1892": 6620,
      "##achment": 6621,
      "chick": 6622,
      "wre": 6623,
      "weigh": 6624,
      "aged": 6625,
      "rot": 6626,
      "shoes": 6627,
      "poured": 6628,
      "##othy": 6629,
      "maiden": 6630,
      "dash": 6631,
      "##oration": 6632,
      "cy": 6633,
      "orch": 6634,
      "raising": 6635,
      "deserted": 6636,
      "midnight": 6637,
      "lesson": 6638,
      "horrible": 6639,
      "landing": 6640,
      "driving": 6641,
      "inev": 6642,
      "reckon": 6643,
      "nest": 6644,
      "##icial": 6645,
      "throwing": 6646,
      "potat": 6647,
      "##ctor": 6648,
      "sections": 6649,
      "impl": 6650,
      "##pert": 6651,
      "threatened": 6652,
      "##look": 6653,
      "obvious": 6654,
      "vice": 6655,
      "supported": 6656,
      "association": 6657,
      "##ococc": 6658,
      "##oir": 6659,
      "##enom": 6660,
      "encl": 6661,
      "##nat": 6662,
      "activity": 6663,
      "dimin": 6664,
      "hunt": 6665,
      "betr": 6666,
      "rebell": 6667,
      "torn": 6668,
      "rested": 6669,
      "ry": 6670,
      "pover": 6671,
      "swall": 6672,
      "illustrated": 6673,
      "##assed": 6674,
      "songs": 6675,
      "##cob": 6676,
      "encoura": 6677,
      "located": 6678,
      "poverty": 6679,
      "##oonful": 6680,
      "leaders": 6681,
      "smell": 6682,
      "earliest": 6683,
      "##orthy": 6684,
      "bern": 6685,
      "residence": 6686,
      "eleg": 6687,
      "conviction": 6688,
      "assembly": 6689,
      "scr": 6690,
      "resolution": 6691,
      "displayed": 6692,
      "psal": 6693,
      "exceedingly": 6694,
      "joe": 6695,
      "00": 6696,
      "##van": 6697,
      "haste": 6698,
      "sympt": 6699,
      "painting": 6700,
      "reproach": 6701,
      "pretend": 6702,
      "safely": 6703,
      "mode": 6704,
      "flew": 6705,
      "degrees": 6706,
      "adventure": 6707,
      "giant": 6708,
      "cub": 6709,
      "sne": 6710,
      "##cel": 6711,
      "ingen": 6712,
      "##ishes": 6713,
      "trick": 6714,
      "syn": 6715,
      "teaching": 6716,
      "turns": 6717,
      "shake": 6718,
      "##iger": 6719,
      "##burgh": 6720,
      "agreeable": 6721,
      "enthusiasm": 6722,
      "alexander": 6723,
      "##cast": 6724,
      "hospit": 6725,
      "shield": 6726,
      "prejud": 6727,
      "boast": 6728,
      "repair": 6729,
      "dutch": 6730,
      "tide": 6731,
      "permanent": 6732,
      "blast": 6733,
      "regarding": 6734,
      "abandoned": 6735,
      "##isher": 6736,
      "conceal": 6737,
      "mask": 6738,
      "boots": 6739,
      "princes": 6740,
      "tones": 6741,
      "accounts": 6742,
      "minor": 6743,
      "##isation": 6744,
      "startled": 6745,
      "peasant": 6746,
      "pend": 6747,
      "establishment": 6748,
      "observations": 6749,
      "cutting": 6750,
      "crack": 6751,
      "altar": 6752,
      "satur": 6753,
      "sunshine": 6754,
      "generation": 6755,
      "equip": 6756,
      "##ground": 6757,
      "prayers": 6758,
      "mant": 6759,
      "##rose": 6760,
      "##icient": 6761,
      "##iah": 6762,
      "##esy": 6763,
      "editions": 6764,
      "diver": 6765,
      "##opl": 6766,
      "imagined": 6767,
      "comparison": 6768,
      "chall": 6769,
      "hearted": 6770,
      "##anny": 6771,
      "muttered": 6772,
      "sauce": 6773,
      "##oser": 6774,
      "compliance": 6775,
      "moham": 6776,
      "teacher": 6777,
      "revealed": 6778,
      "speaks": 6779,
      "beaten": 6780,
      "152": 6781,
      "embarr": 6782,
      "clerk": 6783,
      "##ola": 6784,
      "churches": 6785,
      "wheat": 6786,
      "astonished": 6787,
      "hit": 6788,
      "lane": 6789,
      "slightest": 6790,
      "##iour": 6791,
      "sab": 6792,
      "##arian": 6793,
      "chor": 6794,
      "maur": 6795,
      "maintained": 6796,
      "siege": 6797,
      "complex": 6798,
      "terrif": 6799,
      "gord": 6800,
      "##arts": 6801,
      "cock": 6802,
      "opposition": 6803,
      "hastened": 6804,
      "favourite": 6805,
      "haz": 6806,
      "shaking": 6807,
      "sighed": 6808,
      "psych": 6809,
      "rese": 6810,
      "stan": 6811,
      "loves": 6812,
      "kid": 6813,
      "sher": 6814,
      "gardens": 6815,
      "headed": 6816,
      "##sell": 6817,
      "chem": 6818,
      "##outs": 6819,
      "##tha": 6820,
      "##ulations": 6821,
      "clam": 6822,
      "lightly": 6823,
      "senses": 6824,
      "cared": 6825,
      "conquer": 6826,
      "exhausted": 6827,
      "independence": 6828,
      "brigade": 6829,
      "discipl": 6830,
      "eh": 6831,
      "##ewell": 6832,
      "navig": 6833,
      "reject": 6834,
      "wondering": 6835,
      "champ": 6836,
      "territory": 6837,
      "distinctly": 6838,
      "##amation": 6839,
      "begins": 6840,
      "culture": 6841,
      "##itating": 6842,
      "gracious": 6843,
      "queer": 6844,
      "##acious": 6845,
      "layer": 6846,
      "devotion": 6847,
      "##ography": 6848,
      "ceremony": 6849,
      "remo": 6850,
      "testim": 6851,
      "##utive": 6852,
      "stol": 6853,
      "##osal": 6854,
      "leaf": 6855,
      "shadows": 6856,
      "area": 6857,
      "originally": 6858,
      "plun": 6859,
      "eve": 6860,
      "sale": 6861,
      "crossing": 6862,
      "disturb": 6863,
      "fatig": 6864,
      "supplies": 6865,
      "entit": 6866,
      "gale": 6867,
      "previously": 6868,
      "suspect": 6869,
      "apt": 6870,
      "##iday": 6871,
      "cant": 6872,
      "##ache": 6873,
      "nich": 6874,
      "isa": 6875,
      "##bridge": 6876,
      "ton": 6877,
      "claims": 6878,
      "fires": 6879,
      "fears": 6880,
      "leis": 6881,
      "##izes": 6882,
      "instructions": 6883,
      "aer": 6884,
      "providing": 6885,
      "500": 6886,
      "63": 6887,
      "##otic": 6888,
      "victim": 6889,
      "stag": 6890,
      "veh": 6891,
      "realized": 6892,
      "##llen": 6893,
      "##iana": 6894,
      "fib": 6895,
      "reasonable": 6896,
      "studied": 6897,
      "##grat": 6898,
      "respond": 6899,
      "estim": 6900,
      "##force": 6901,
      "##li": 6902,
      "farewell": 6903,
      "phenom": 6904,
      "geoff": 6905,
      "sounded": 6906,
      "slavery": 6907,
      "##row": 6908,
      "deeper": 6909,
      "captured": 6910,
      "##ado": 6911,
      "prem": 6912,
      "precip": 6913,
      "passes": 6914,
      "columbus": 6915,
      "fed": 6916,
      "##edge": 6917,
      "noon": 6918,
      "confident": 6919,
      "hugh": 6920,
      "##tic": 6921,
      "magic": 6922,
      "disappointment": 6923,
      "cun": 6924,
      "##aid": 6925,
      "goodness": 6926,
      "instruments": 6927,
      "beings": 6928,
      "steadily": 6929,
      "humour": 6930,
      "fitted": 6931,
      "presents": 6932,
      "400": 6933,
      "##eur": 6934,
      "magaz": 6935,
      "translation": 6936,
      "sharply": 6937,
      "bou": 6938,
      "sins": 6939,
      "sheet": 6940,
      "relative": 6941,
      "echo": 6942,
      "cries": 6943,
      "##vest": 6944,
      "toss": 6945,
      "bol": 6946,
      "brings": 6947,
      "bert": 6948,
      "cheap": 6949,
      "neat": 6950,
      "refuge": 6951,
      "rival": 6952,
      "tut": 6953,
      "##istered": 6954,
      "##adel": 6955,
      "deny": 6956,
      "homes": 6957,
      "rat": 6958,
      "inval": 6959,
      "crying": 6960,
      "interpret": 6961,
      "cu": 6962,
      "##gue": 6963,
      "flow": 6964,
      "scale": 6965,
      "preserve": 6966,
      "awake": 6967,
      "annoy": 6968,
      "motive": 6969,
      "peril": 6970,
      "##eys": 6971,
      "##umn": 6972,
      "medical": 6973,
      "##omed": 6974,
      "genuine": 6975,
      "coloured": 6976,
      "176": 6977,
      "pere": 6978,
      "thread": 6979,
      "##ingham": 6980,
      "##eman": 6981,
      "persec": 6982,
      "millions": 6983,
      "hesitated": 6984,
      "commerce": 6985,
      "71": 6986,
      "clar": 6987,
      "mun": 6988,
      "seed": 6989,
      "seventy": 6990,
      "hook": 6991,
      "stayed": 6992,
      "myth": 6993,
      "confeder": 6994,
      "trail": 6995,
      "dismiss": 6996,
      "arise": 6997,
      "carl": 6998,
      "flu": 6999,
      "interf": 7000,
      "cheerful": 7001,
      "duchess": 7002,
      "curs": 7003,
      "narrative": 7004,
      "sorts": 7005,
      "creation": 7006,
      "basket": 7007,
      "center": 7008,
      "##vi": 7009,
      "deem": 7010,
      "sob": 7011,
      "cease": 7012,
      "tob": 7013,
      "pointing": 7014,
      "disturbed": 7015,
      "apost": 7016,
      "chronic": 7017,
      "##cting": 7018,
      "critical": 7019,
      "tear": 7020,
      "limbs": 7021,
      "intelligent": 7022,
      "burden": 7023,
      "dirty": 7024,
      "74": 7025,
      "pitch": 7026,
      "tiny": 7027,
      "stim": 7028,
      "founded": 7029,
      "ranks": 7030,
      "chapel": 7031,
      "internal": 7032,
      "rud": 7033,
      "seam": 7034,
      "amm": 7035,
      "impulse": 7036,
      "unlike": 7037,
      "prevented": 7038,
      "jacob": 7039,
      "consists": 7040,
      "writes": 7041,
      "##gest": 7042,
      "restored": 7043,
      "pursuit": 7044,
      "assembled": 7045,
      "temp": 7046,
      "madam": 7047,
      "tendency": 7048,
      "pi": 7049,
      "tun": 7050,
      "bears": 7051,
      "##olate": 7052,
      "acid": 7053,
      "debt": 7054,
      "inquiry": 7055,
      "ts": 7056,
      "pole": 7057,
      "generations": 7058,
      "saddle": 7059,
      "consequences": 7060,
      "marj": 7061,
      "individuals": 7062,
      "nephew": 7063,
      "leisure": 7064,
      "xii": 7065,
      "##allel": 7066,
      "mans": 7067,
      "unre": 7068,
      "belg": 7069,
      "furniture": 7070,
      "crawley": 7071,
      "##upon": 7072,
      "considering": 7073,
      "leaning": 7074,
      "pace": 7075,
      "mock": 7076,
      "exchange": 7077,
      "##low": 7078,
      "##ucle": 7079,
      "accordance": 7080,
      "lawyer": 7081,
      "plot": 7082,
      "expenses": 7083,
      "rarely": 7084,
      "gir": 7085,
      "suppress": 7086,
      "##idel": 7087,
      "poems": 7088,
      "bench": 7089,
      "charged": 7090,
      "stu": 7091,
      "armies": 7092,
      "geoffrey": 7093,
      "72": 7094,
      "um": 7095,
      "##umption": 7096,
      "##plicity": 7097,
      "ours": 7098,
      "mail": 7099,
      "badly": 7100,
      "reflection": 7101,
      "intervals": 7102,
      "external": 7103,
      "preceding": 7104,
      "mamma": 7105,
      "pine": 7106,
      "subd": 7107,
      "venture": 7108,
      "student": 7109,
      "84": 7110,
      "oxford": 7111,
      "grateful": 7112,
      "gifts": 7113,
      "waist": 7114,
      "cavity": 7115,
      "requirements": 7116,
      "revenge": 7117,
      "relieved": 7118,
      "strain": 7119,
      "survey": 7120,
      "eighteen": 7121,
      "touching": 7122,
      "rang": 7123,
      "##ds": 7124,
      "##urer": 7125,
      "ability": 7126,
      "##bery": 7127,
      "locked": 7128,
      "holl": 7129,
      "invitation": 7130,
      "fury": 7131,
      "disappear": 7132,
      "exists": 7133,
      "brass": 7134,
      "pains": 7135,
      "inferior": 7136,
      "idle": 7137,
      "dining": 7138,
      "belongs": 7139,
      "wrath": 7140,
      "selected": 7141,
      "##ih": 7142,
      "quarrel": 7143,
      "disclaim": 7144,
      "starting": 7145,
      "fearful": 7146,
      "colonies": 7147,
      "leaned": 7148,
      "quoted": 7149,
      "gospel": 7150,
      "##ensions": 7151,
      "##rice": 7152,
      "bye": 7153,
      "folly": 7154,
      "musk": 7155,
      "ov": 7156,
      "agony": 7157,
      "overcome": 7158,
      "fortunate": 7159,
      "sergeant": 7160,
      "ug": 7161,
      "traged": 7162,
      "##ipper": 7163,
      "raymond": 7164,
      "leon": 7165,
      "parted": 7166,
      "depends": 7167,
      "settlement": 7168,
      "##col": 7169,
      "illustrations": 7170,
      "infantry": 7171,
      "shone": 7172,
      "##ruption": 7173,
      "thirst": 7174,
      "students": 7175,
      "tid": 7176,
      "##ua": 7177,
      "sax": 7178,
      "scru": 7179,
      "phara": 7180,
      "##ulating": 7181,
      "colored": 7182,
      "patron": 7183,
      "absent": 7184,
      "staring": 7185,
      "composition": 7186,
      "parent": 7187,
      "transfer": 7188,
      "coward": 7189,
      "##cr": 7190,
      "scul": 7191,
      "breth": 7192,
      "##ieties": 7193,
      "covering": 7194,
      "disappointed": 7195,
      "pharaoh": 7196,
      "oak": 7197,
      "##inating": 7198,
      "insult": 7199,
      "interpre": 7200,
      "entitled": 7201,
      "plates": 7202,
      "dressing": 7203,
      "xi": 7204,
      "consisted": 7205,
      "##anks": 7206,
      "154": 7207,
      "concent": 7208,
      "daughters": 7209,
      "pronounced": 7210,
      "countess": 7211,
      "poster": 7212,
      "##otions": 7213,
      "##vell": 7214,
      "enabled": 7215,
      "charley": 7216,
      "desk": 7217,
      "##lands": 7218,
      "enjo": 7219,
      "gloomy": 7220,
      "gilbert": 7221,
      "brethren": 7222,
      "##eries": 7223,
      "153": 7224,
      "industri": 7225,
      "##piration": 7226,
      "##sett": 7227,
      "travelling": 7228,
      "##leigh": 7229,
      "trap": 7230,
      "propriet": 7231,
      "confession": 7232,
      "suspected": 7233,
      "capture": 7234,
      "##eding": 7235,
      "construction": 7236,
      "pall": 7237,
      "raven": 7238,
      "http": 7239,
      "poly": 7240,
      "selfish": 7241,
      "defeat": 7242,
      "hebrew": 7243,
      "wake": 7244,
      "cleared": 7245,
      "##adem": 7246,
      "sof": 7247,
      "portions": 7248,
      "organization": 7249,
      "training": 7250,
      "incon": 7251,
      "opposed": 7252,
      "naked": 7253,
      "##hol": 7254,
      "##opes": 7255,
      "##istry": 7256,
      "capacity": 7257,
      "resting": 7258,
      "heavens": 7259,
      "available": 7260,
      "nic": 7261,
      "##born": 7262,
      "manage": 7263,
      "theatre": 7264,
      "administration": 7265,
      "stom": 7266,
      "##agues": 7267,
      "grin": 7268,
      "voc": 7269,
      "copper": 7270,
      "disgrace": 7271,
      "##iano": 7272,
      "eyed": 7273,
      "examine": 7274,
      "bun": 7275,
      "##angel": 7276,
      "politics": 7277,
      "vanished": 7278,
      "sevent": 7279,
      "wedding": 7280,
      "platform": 7281,
      "cyl": 7282,
      "sore": 7283,
      "chim": 7284,
      "##elly": 7285,
      "avo": 7286,
      "mand": 7287,
      "continually": 7288,
      "pilgr": 7289,
      "sculpt": 7290,
      "##gers": 7291,
      "actions": 7292,
      "provision": 7293,
      "shoot": 7294,
      "mexico": 7295,
      "───────": 7296,
      "##wall": 7297,
      "root": 7298,
      "commonly": 7299,
      "depress": 7300,
      "gathering": 7301,
      "hawk": 7302,
      "undoubtedly": 7303,
      "outward": 7304,
      "electric": 7305,
      "kate": 7306,
      "##ainder": 7307,
      "online": 7308,
      "bett": 7309,
      "rifle": 7310,
      "##din": 7311,
      "##unted": 7312,
      "##quet": 7313,
      "##eps": 7314,
      "moist": 7315,
      "readers": 7316,
      "folks": 7317,
      "gordon": 7318,
      "pip": 7319,
      "attain": 7320,
      "followers": 7321,
      "extensive": 7322,
      "satisfactory": 7323,
      "determination": 7324,
      "repeat": 7325,
      "vary": 7326,
      "silently": 7327,
      "flock": 7328,
      "##uously": 7329,
      "scottish": 7330,
      "sess": 7331,
      "turk": 7332,
      "fasc": 7333,
      "rein": 7334,
      "##ifies": 7335,
      "sailors": 7336,
      "##quisite": 7337,
      "beth": 7338,
      "conception": 7339,
      "summit": 7340,
      "notion": 7341,
      "whereas": 7342,
      "bapt": 7343,
      "fountain": 7344,
      "preparations": 7345,
      "beheld": 7346,
      "parad": 7347,
      "irres": 7348,
      "encourage": 7349,
      "customs": 7350,
      "bibl": 7351,
      "forever": 7352,
      "ambition": 7353,
      "mingled": 7354,
      "vulgar": 7355,
      "dragged": 7356,
      "responsible": 7357,
      "groan": 7358,
      "##iated": 7359,
      "corpor": 7360,
      "wilder": 7361,
      "saturday": 7362,
      "offering": 7363,
      "mortal": 7364,
      "surrounding": 7365,
      "fert": 7366,
      "smart": 7367,
      "villages": 7368,
      "ditt": 7369,
      "##isy": 7370,
      "appreh": 7371,
      "pneumonia": 7372,
      "##rd": 7373,
      "remainder": 7374,
      "combined": 7375,
      "reflected": 7376,
      "deeds": 7377,
      "swim": 7378,
      "runs": 7379,
      "wilt": 7380,
      "engagement": 7381,
      "holds": 7382,
      "misfort": 7383,
      "##rington": 7384,
      "occupation": 7385,
      "bone": 7386,
      "cyn": 7387,
      "volcan": 7388,
      "indicate": 7389,
      "##otted": 7390,
      "mead": 7391,
      "##agon": 7392,
      "perple": 7393,
      "marble": 7394,
      "ugly": 7395,
      "misfortune": 7396,
      "doubtful": 7397,
      "rupert": 7398,
      "tap": 7399,
      "pars": 7400,
      "seas": 7401,
      "hale": 7402,
      "trench": 7403,
      "passages": 7404,
      "eloqu": 7405,
      "injury": 7406,
      "powder": 7407,
      "spaniards": 7408,
      "##illes": 7409,
      "##athan": 7410,
      "insist": 7411,
      "sway": 7412,
      "verse": 7413,
      "dwelling": 7414,
      "border": 7415,
      "bees": 7416,
      "compr": 7417,
      "##phia": 7418,
      "speaker": 7419,
      "squad": 7420,
      "##┼────────┼────────": 7421,
      "99": 7422,
      "##iency": 7423,
      "adam": 7424,
      "disag": 7425,
      "charity": 7426,
      "##eous": 7427,
      "fruits": 7428,
      "stupid": 7429,
      "exquisite": 7430,
      "daylight": 7431,
      "assume": 7432,
      "##whel": 7433,
      "attempts": 7434,
      "preparing": 7435,
      "describe": 7436,
      "kir": 7437,
      "fores": 7438,
      "endure": 7439,
      "merit": 7440,
      "solution": 7441,
      "creating": 7442,
      "73": 7443,
      "bamb": 7444,
      "daring": 7445,
      "retire": 7446,
      "influenz": 7447,
      "meantime": 7448,
      "load": 7449,
      "78": 7450,
      "mull": 7451,
      "disord": 7452,
      "circul": 7453,
      "eccles": 7454,
      "remote": 7455,
      "embra": 7456,
      "overwhel": 7457,
      "races": 7458,
      "##raction": 7459,
      "grav": 7460,
      "blessing": 7461,
      "testimony": 7462,
      "##ini": 7463,
      "reception": 7464,
      "##chn": 7465,
      "wearing": 7466,
      "##arde": 7467,
      "inspect": 7468,
      "abandon": 7469,
      "##ustral": 7470,
      "records": 7471,
      "summoned": 7472,
      "symptoms": 7473,
      "alarmed": 7474,
      "treasure": 7475,
      "jaw": 7476,
      "##rels": 7477,
      "dissol": 7478,
      "purchase": 7479,
      "file": 7480,
      "chase": 7481,
      "polite": 7482,
      "signed": 7483,
      "warriors": 7484,
      "nons": 7485,
      "##ules": 7486,
      "prel": 7487,
      "shaped": 7488,
      "winthrop": 7489,
      "negroes": 7490,
      "venge": 7491,
      "compare": 7492,
      "daven": 7493,
      "denied": 7494,
      "erected": 7495,
      "washed": 7496,
      "88": 7497,
      "advert": 7498,
      "edgar": 7499,
      "conquest": 7500,
      "##rily": 7501,
      "ministers": 7502,
      "austral": 7503,
      "finan": 7504,
      "magistr": 7505,
      "displaying": 7506,
      "##nel": 7507,
      "atl": 7508,
      "portugues": 7509,
      "amusement": 7510,
      "bor": 7511,
      "##gram": 7512,
      "dorothy": 7513,
      "replacement": 7514,
      "nail": 7515,
      "##leness": 7516,
      "receipt": 7517,
      "slip": 7518,
      "earnestly": 7519,
      "##ione": 7520,
      "vivid": 7521,
      "##hib": 7522,
      "brook": 7523,
      "liberal": 7524,
      "stum": 7525,
      "alle": 7526,
      "lofty": 7527,
      "induced": 7528,
      "incred": 7529,
      "discont": 7530,
      "materials": 7531,
      "portrait": 7532,
      "##urre": 7533,
      "##law": 7534,
      "roots": 7535,
      "messenger": 7536,
      "calculated": 7537,
      "ib": 7538,
      "##uv": 7539,
      "confused": 7540,
      "obedience": 7541,
      "cunning": 7542,
      "patch": 7543,
      "prol": 7544,
      "string": 7545,
      "motor": 7546,
      "weapons": 7547,
      "76": 7548,
      "cens": 7549,
      "##lv": 7550,
      "whit": 7551,
      "cha": 7552,
      "substit": 7553,
      "moor": 7554,
      "breach": 7555,
      "sixteen": 7556,
      "carolina": 7557,
      "portuguese": 7558,
      "desires": 7559,
      "swear": 7560,
      "knocked": 7561,
      "passengers": 7562,
      "slain": 7563,
      "immort": 7564,
      "civilization": 7565,
      "##rical": 7566,
      "##asion": 7567,
      "##odore": 7568,
      "tran": 7569,
      "intimate": 7570,
      "score": 7571,
      "confirmed": 7572,
      "owen": 7573,
      "mixture": 7574,
      "##uity": 7575,
      "arrive": 7576,
      "accompany": 7577,
      "##ez": 7578,
      "succession": 7579,
      "obtaining": 7580,
      "endeavour": 7581,
      "##icle": 7582,
      "glit": 7583,
      "assure": 7584,
      "determine": 7585,
      "wave": 7586,
      "##istrib": 7587,
      "contrad": 7588,
      "dart": 7589,
      "math": 7590,
      "suitable": 7591,
      "employment": 7592,
      "rue": 7593,
      "thar": 7594,
      "##achel": 7595,
      "engra": 7596,
      "##ante": 7597,
      "impart": 7598,
      "incom": 7599,
      "redistrib": 7600,
      "155": 7601,
      "limit": 7602,
      "sensible": 7603,
      "comparatively": 7604,
      "stair": 7605,
      "harbour": 7606,
      "precisely": 7607,
      "enable": 7608,
      "warn": 7609,
      "translated": 7610,
      "route": 7611,
      "abruptly": 7612,
      "rav": 7613,
      "flatter": 7614,
      "judges": 7615,
      "imprison": 7616,
      "contempor": 7617,
      "tremend": 7618,
      "##iences": 7619,
      "##verse": 7620,
      "fees": 7621,
      "##blance": 7622,
      "salvation": 7623,
      "errors": 7624,
      "bewild": 7625,
      "lum": 7626,
      "stroke": 7627,
      "##cope": 7628,
      "bour": 7629,
      "##ste": 7630,
      "ate": 7631,
      "happens": 7632,
      "preferred": 7633,
      "anchor": 7634,
      "murdered": 7635,
      "##alled": 7636,
      "##ieu": 7637,
      "dram": 7638,
      "gallery": 7639,
      "gazing": 7640,
      "wandering": 7641,
      "patter": 7642,
      "pruss": 7643,
      "rolling": 7644,
      "hatred": 7645,
      "involved": 7646,
      "subsequent": 7647,
      "railroad": 7648,
      "ornam": 7649,
      "medicine": 7650,
      "channel": 7651,
      "pul": 7652,
      "saints": 7653,
      "##ded": 7654,
      "##icians": 7655,
      "extract": 7656,
      "treach": 7657,
      "darling": 7658,
      "normal": 7659,
      "honey": 7660,
      "##itors": 7661,
      "burnt": 7662,
      "bettina": 7663,
      "unpleas": 7664,
      "laun": 7665,
      "parallel": 7666,
      "autumn": 7667,
      "ade": 7668,
      "correspondence": 7669,
      "afforded": 7670,
      "##anes": 7671,
      "dat": 7672,
      "anton": 7673,
      "tissue": 7674,
      "##laced": 7675,
      "##arsh": 7676,
      "handker": 7677,
      "symbol": 7678,
      "commence": 7679,
      "##mann": 7680,
      "##after": 7681,
      "stomach": 7682,
      "cos": 7683,
      "pudd": 7684,
      "##gent": 7685,
      "entreat": 7686,
      "declar": 7687,
      "hated": 7688,
      "declare": 7689,
      "tenderness": 7690,
      "procession": 7691,
      "advantages": 7692,
      "nonsense": 7693,
      "chose": 7694,
      "teut": 7695,
      "status": 7696,
      "epith": 7697,
      "physician": 7698,
      "beasts": 7699,
      "gesture": 7700,
      "battalion": 7701,
      "maurice": 7702,
      "conj": 7703,
      "attracted": 7704,
      "studies": 7705,
      "ridge": 7706,
      "climate": 7707,
      "interc": 7708,
      "adventures": 7709,
      "vit": 7710,
      "shouldn": 7711,
      "trump": 7712,
      "roy": 7713,
      "eaten": 7714,
      "newspapers": 7715,
      "handkerchief": 7716,
      "85": 7717,
      "##met": 7718,
      "handle": 7719,
      "mirr": 7720,
      "dy": 7721,
      "deed": 7722,
      "##aneous": 7723,
      "stolen": 7724,
      "##leg": 7725,
      "trunk": 7726,
      "jumped": 7727,
      "##icing": 7728,
      "performance": 7729,
      "##abor": 7730,
      "dad": 7731,
      "stores": 7732,
      "151": 7733,
      "tales": 7734,
      "##back": 7735,
      "regions": 7736,
      "distinguish": 7737,
      "pon": 7738,
      "shared": 7739,
      "sober": 7740,
      "##ques": 7741,
      "grasp": 7742,
      "finish": 7743,
      "eug": 7744,
      "##lets": 7745,
      "alb": 7746,
      "cannon": 7747,
      "cards": 7748,
      "mak": 7749,
      "orph": 7750,
      "81": 7751,
      "wives": 7752,
      "academ": 7753,
      "criticism": 7754,
      "davenal": 7755,
      "beating": 7756,
      "spell": 7757,
      "##ucc": 7758,
      "##omy": 7759,
      "repent": 7760,
      "glasses": 7761,
      "imperfect": 7762,
      "colours": 7763,
      "promptly": 7764,
      "init": 7765,
      "proceeding": 7766,
      "##vas": 7767,
      "existing": 7768,
      "romance": 7769,
      "sailor": 7770,
      "sanct": 7771,
      "indignation": 7772,
      "##encies": 7773,
      "ninet": 7774,
      "acknowledged": 7775,
      "ing": 7776,
      "visitors": 7777,
      "funeral": 7778,
      "wars": 7779,
      "##aux": 7780,
      "gravely": 7781,
      "indifferent": 7782,
      "bind": 7783,
      "pref": 7784,
      "appet": 7785,
      "mississ": 7786,
      "minded": 7787,
      "riv": 7788,
      "laying": 7789,
      "musical": 7790,
      "criminal": 7791,
      "micros": 7792,
      "##da": 7793,
      "##ador": 7794,
      "wanting": 7795,
      "##isk": 7796,
      "vengeance": 7797,
      "orange": 7798,
      "evol": 7799,
      "volumes": 7800,
      "149": 7801,
      "duct": 7802,
      "candle": 7803,
      "knights": 7804,
      "viz": 7805,
      "portugal": 7806,
      "landlord": 7807,
      "xiii": 7808,
      "fastened": 7809,
      "flav": 7810,
      "ditto": 7811,
      "##ca": 7812,
      "fred": 7813,
      "allies": 7814,
      "wordsworth": 7815,
      "hopeless": 7816,
      "##chester": 7817,
      "rays": 7818,
      "decide": 7819,
      "beds": 7820,
      "tyr": 7821,
      "gown": 7822,
      "damages": 7823,
      "balance": 7824,
      "absorbed": 7825,
      "varied": 7826,
      "disgu": 7827,
      "museum": 7828,
      "mast": 7829,
      "##istics": 7830,
      "considerably": 7831,
      "arrest": 7832,
      "objection": 7833,
      "basis": 7834,
      "mississipp": 7835,
      "egyptian": 7836,
      "simplicity": 7837,
      "inspired": 7838,
      "ruined": 7839,
      "comrades": 7840,
      "##alem": 7841,
      "experiments": 7842,
      "gig": 7843,
      "nucle": 7844,
      "tops": 7845,
      "##eling": 7846,
      "mob": 7847,
      "raw": 7848,
      "boxes": 7849,
      "ecclesi": 7850,
      "##omatic": 7851,
      "arrested": 7852,
      "##ider": 7853,
      "painter": 7854,
      "penny": 7855,
      "florence": 7856,
      "discipline": 7857,
      "##mo": 7858,
      "##mouth": 7859,
      "##rick": 7860,
      "##uk": 7861,
      "bot": 7862,
      "illum": 7863,
      "statements": 7864,
      "ornament": 7865,
      "gib": 7866,
      "sally": 7867,
      "deer": 7868,
      "confessed": 7869,
      "organized": 7870,
      "equipment": 7871,
      "dict": 7872,
      "closer": 7873,
      "drum": 7874,
      "leads": 7875,
      "cathed": 7876,
      "swiftly": 7877,
      "manus": 7878,
      "amused": 7879,
      "conspic": 7880,
      "fishing": 7881,
      "arrangements": 7882,
      "dors": 7883,
      "##olent": 7884,
      "brut": 7885,
      "respectable": 7886,
      "performing": 7887,
      "lodge": 7888,
      "chic": 7889,
      "##ifully": 7890,
      "smoking": 7891,
      "transform": 7892,
      "burg": 7893,
      "divers": 7894,
      "##no": 7895,
      "worry": 7896,
      "eleph": 7897,
      "indifference": 7898,
      "tobacc": 7899,
      "gw": 7900,
      "slee": 7901,
      "damage": 7902,
      "shells": 7903,
      "foe": 7904,
      "horizon": 7905,
      "intercourse": 7906,
      "##inn": 7907,
      "##ona": 7908,
      "feature": 7909,
      "proceedings": 7910,
      "perceive": 7911,
      "aroused": 7912,
      "appearing": 7913,
      "harris": 7914,
      "daz": 7915,
      "lily": 7916,
      "improvement": 7917,
      "fourteen": 7918,
      "occasional": 7919,
      "bitterly": 7920,
      "calif": 7921,
      "##lor": 7922,
      "prime": 7923,
      "intern": 7924,
      "elb": 7925,
      "79": 7926,
      "shepher": 7927,
      "edin": 7928,
      "healthy": 7929,
      "artific": 7930,
      "companies": 7931,
      "neglected": 7932,
      "ia": 7933,
      "returns": 7934,
      "metal": 7935,
      "bund": 7936,
      "losing": 7937,
      "wire": 7938,
      "wrought": 7939,
      "copying": 7940,
      "satisfy": 7941,
      "improved": 7942,
      "crept": 7943,
      "thief": 7944,
      "##oman": 7945,
      "##icious": 7946,
      "adding": 7947,
      "holder": 7948,
      "irreg": 7949,
      "lively": 7950,
      "ul": 7951,
      "security": 7952,
      "samuel": 7953,
      "gab": 7954,
      "##ties": 7955,
      "feels": 7956,
      "potatoes": 7957,
      "californ": 7958,
      "fence": 7959,
      "jest": 7960,
      "cray": 7961,
      "drank": 7962,
      "emotions": 7963,
      "assault": 7964,
      "175": 7965,
      "julia": 7966,
      "harsh": 7967,
      "pleasing": 7968,
      "strangely": 7969,
      "dia": 7970,
      "buff": 7971,
      "mississippi": 7972,
      "##usalem": 7973,
      "wheels": 7974,
      "version": 7975,
      "grain": 7976,
      "team": 7977,
      "retained": 7978,
      "gulf": 7979,
      "prior": 7980,
      "knee": 7981,
      "boiling": 7982,
      "missing": 7983,
      "solitary": 7984,
      "feeble": 7985,
      "heroes": 7986,
      "heed": 7987,
      "authors": 7988,
      "oliver": 7989,
      "enlar": 7990,
      "tobacco": 7991,
      "core": 7992,
      "pag": 7993,
      "hiding": 7994,
      "despite": 7995,
      "opera": 7996,
      "diseases": 7997,
      "##mad": 7998,
      "brush": 7999
    }
  }
}